{
  "version": "1.0",
  "truncation": null,
  "padding": null,
  "added_tokens": [
    {
      "id": 0,
      "content": "<unk>",
      "single_word": false,
      "lstrip": false,
      "rstrip": false,
      "normalized": false,
      "special": true
    },
    {
      "id": 1,
      "content": "<s>",
      "single_word": false,
      "lstrip": false,
      "rstrip": false,
      "normalized": false,
      "special": true
    },
    {
      "id": 2,
      "content": "</s>",
      "single_word": false,
      "lstrip": false,
      "rstrip": false,
      "normalized": false,
      "special": true
    }
  ],
  "normalizer": null,
  "pre_tokenizer": {
    "type": "Sequence",
    "pretokenizers": [
      {
        "type": "Split",
        "pattern": {
          "Regex": "\\p{L}+(?:['’]\\p{L}+)*|\\p{N}|[^\\p{L}\\p{N}\\s]|\\s+"
        },
        "behavior": "Isolated",
        "invert": false
      },
      {
        "type": "ByteLevel",
        "add_prefix_space": false,
        "trim_offsets": true,
        "use_regex": false
      }
    ]
  },
  "post_processor": {
    "type": "TemplateProcessing",
    "single": [
      {
        "SpecialToken": {
          "id": "<s>",
          "type_id": 0
        }
      },
      {
        "Sequence": {
          "id": "A",
          "type_id": 0
        }
      },
      {
        "SpecialToken": {
          "id": "</s>",
          "type_id": 0
        }
      }
    ],
    "pair": [
      {
        "SpecialToken": {
          "id": "<s>",
          "type_id": 0
        }
      },
      {
        "Sequence": {
          "id": "A",
          "type_id": 0
        }
      },
      {
        "SpecialToken": {
          "id": "</s>",
          "type_id": 0
        }
      },
      {
        "Sequence": {
          "id": "B",
          "type_id": 1
        }
      },
      {
        "SpecialToken": {
          "id": "</s>",
          "type_id": 1
        }
      }
    ],
    "special_tokens": {
      "</s>": {
        "id": "</s>",
        "ids": [
          2
        ],
        "tokens": [
          "</s>"
        ]
      },
      "<s>": {
        "id": "<s>",
        "ids": [
          1
        ],
        "tokens": [
          "<s>"
        ]
      }
    }
  },
  "decoder": {
    "type": "ByteLevel",
    "add_prefix_space": true,
    "trim_offsets": true,
    "use_regex": true
  },
  "model": {
    "type": "BPE",
    "dropout": null,
    "unk_token": "<unk>",
    "continuing_subword_prefix": null,
    "end_of_word_suffix": null,
    "fuse_unk": false,
    "byte_fallback": false,
    "ignore_merges": false,
    "vocab": {
      "<unk>": 0,
      "<s>": 1,
      "</s>": 2,
      "!": 3,
      "\"": 4,
      "#": 5,
      "$": 6,
      "%": 7,
      "&": 8,
      "'": 9,
      "(": 10,
      ")": 11,
      "*": 12,
      "+": 13,
      ",": 14,
      "-": 15,
      ".": 16,
      "/": 17,
      "0": 18,
      "1": 19,
      "2": 20,
      "3": 21,
      "4": 22,
      "5": 23,
      "6": 24,
      "7": 25,
      "8": 26,
      "9": 27,
      ":": 28,
      ";": 29,
      "<": 30,
      "=": 31,
      ">": 32,
      "?": 33,
      "@": 34,
      "A": 35,
      "B": 36,
      "C": 37,
      "D": 38,
      "E": 39,
      "F": 40,
      "G": 41,
      "H": 42,
      "I": 43,
      "J": 44,
      "K": 45,
      "L": 46,
      "M": 47,
      "N": 48,
      "O": 49,
      "P": 50,
      "Q": 51,
      "R": 52,
      "S": 53,
      "T": 54,
      "U": 55,
      "V": 56,
      "W": 57,
      "X": 58,
      "Y": 59,
      "Z": 60,
      "[": 61,
      "\\": 62,
      "]": 63,
      "^": 64,
      "_": 65,
      "`": 66,
      "a": 67,
      "b": 68,
      "c": 69,
      "d": 70,
      "e": 71,
      "f": 72,
      "g": 73,
      "h": 74,
      "i": 75,
      "j": 76,
      "k": 77,
      "l": 78,
      "m": 79,
      "n": 80,
      "o": 81,
      "p": 82,
      "q": 83,
      "r": 84,
      "s": 85,
      "t": 86,
      "u": 87,
      "v": 88,
      "w": 89,
      "x": 90,
      "y": 91,
      "z": 92,
      "{": 93,
      "|": 94,
      "}": 95,
      "~": 96,
      "¡": 97,
      "¢": 98,
      "£": 99,
      "¤": 100,
      "¥": 101,
      "¦": 102,
      "§": 103,
      "¨": 104,
      "©": 105,
      "ª": 106,
      "«": 107,
      "¬": 108,
      "®": 109,
      "¯": 110,
      "°": 111,
      "±": 112,
      "²": 113,
      "³": 114,
      "´": 115,
      "µ": 116,
      "¶": 117,
      "·": 118,
      "¸": 119,
      "¹": 120,
      "º": 121,
      "»": 122,
      "¼": 123,
      "½": 124,
      "¾": 125,
      "¿": 126,
      "À": 127,
      "Á": 128,
      "Â": 129,
      "Ã": 130,
      "Ä": 131,
      "Å": 132,
      "Æ": 133,
      "Ç": 134,
      "È": 135,
      "É": 136,
      "Ê": 137,
      "Ë": 138,
      "Ì": 139,
      "Í": 140,
      "Î": 141,
      "Ï": 142,
      "Ð": 143,
      "Ñ": 144,
      "Ò": 145,
      "Ó": 146,
      "Ô": 147,
      "Õ": 148,
      "Ö": 149,
      "×": 150,
      "Ø": 151,
      "Ù": 152,
      "Ú": 153,
      "Û": 154,
      "Ü": 155,
      "Ý": 156,
      "Þ": 157,
      "ß": 158,
      "à": 159,
      "á": 160,
      "â": 161,
      "ã": 162,
      "ä": 163,
      "å": 164,
      "æ": 165,
      "ç": 166,
      "è": 167,
      "é": 168,
      "ê": 169,
      "ë": 170,
      "ì": 171,
      "í": 172,
      "î": 173,
      "ï": 174,
      "ð": 175,
      "ñ": 176,
      "ò": 177,
      "ó": 178,
      "ô": 179,
      "õ": 180,
      "ö": 181,
      "÷": 182,
      "ø": 183,
      "ù": 184,
      "ú": 185,
      "û": 186,
      "ü": 187,
      "ý": 188,
      "þ": 189,
      "ÿ": 190,
      "Ā": 191,
      "ā": 192,
      "Ă": 193,
      "ă": 194,
      "Ą": 195,
      "ą": 196,
      "Ć": 197,
      "ć": 198,
      "Ĉ": 199,
      "ĉ": 200,
      "Ċ": 201,
      "ċ": 202,
      "Č": 203,
      "č": 204,
      "Ď": 205,
      "ď": 206,
      "Đ": 207,
      "đ": 208,
      "Ē": 209,
      "ē": 210,
      "Ĕ": 211,
      "ĕ": 212,
      "Ė": 213,
      "ė": 214,
      "Ę": 215,
      "ę": 216,
      "Ě": 217,
      "ě": 218,
      "Ĝ": 219,
      "ĝ": 220,
      "Ğ": 221,
      "ğ": 222,
      "Ġ": 223,
      "ġ": 224,
      "Ģ": 225,
      "ģ": 226,
      "Ĥ": 227,
      "ĥ": 228,
      "Ħ": 229,
      "ħ": 230,
      "Ĩ": 231,
      "ĩ": 232,
      "Ī": 233,
      "ī": 234,
      "Ĭ": 235,
      "ĭ": 236,
      "Į": 237,
      "į": 238,
      "İ": 239,
      "ı": 240,
      "Ĳ": 241,
      "ĳ": 242,
      "Ĵ": 243,
      "ĵ": 244,
      "Ķ": 245,
      "ķ": 246,
      "ĸ": 247,
      "Ĺ": 248,
      "ĺ": 249,
      "Ļ": 250,
      "ļ": 251,
      "Ľ": 252,
      "ľ": 253,
      "Ŀ": 254,
      "ŀ": 255,
      "Ł": 256,
      "ł": 257,
      "Ń": 258,
      "th": 259,
      "in": 260,
      "an": 261,
      "er": 262,
      "the": 263,
      "on": 264,
      "re": 265,
      "at": 266,
      "en": 267,
      "or": 268,
      "es": 269,
      "al": 270,
      "is": 271,
      "ed": 272,
      "of": 273,
      "and": 274,
      "ou": 275,
      "to": 276,
      "ing": 277,
      "ar": 278,
      "it": 279,
      "as": 280,
      "ic": 281,
      "ion": 282,
      "le": 283,
      "st": 284,
      "ro": 285,
      "ent": 286,
      "ac": 287,
      "se": 288,
      "il": 289,
      "he": 290,
      "ve": 291,
      "om": 292,
      "be": 293,
      "ch": 294,
      "âĢ": 295,
      "ly": 296,
      "de": 297,
      "for": 298,
      "ol": 299,
      "ation": 300,
      "ct": 301,
      "im": 302,
      "ow": 303,
      "are": 304,
      "am": 305,
      "su": 306,
      "ad": 307,
      "ig": 308,
      "ver": 309,
      "that": 310,
      "ce": 311,
      "wh": 312,
      "ter": 313,
      "ir": 314,
      "con": 315,
      "ab": 316,
      "pro": 317,
      "ay": 318,
      "id": 319,
      "ur": 320,
      "ot": 321,
      "ith": 322,
      "un": 323,
      "ge": 324,
      "The": 325,
      "us": 326,
      "ut": 327,
      "ul": 328,
      "pe": 329,
      "our": 330,
      "with": 331,
      "mo": 332,
      "com": 333,
      "tr": 334,
      "lo": 335,
      "res": 336,
      "if": 337,
      "ex": 338,
      "ther": 339,
      "ts": 340,
      "ment": 341,
      "ap": 342,
      "ne": 343,
      "ers": 344,
      "ate": 345,
      "we": 346,
      "pl": 347,
      "te": 348,
      "ain": 349,
      "ess": 350,
      "all": 351,
      "ies": 352,
      "ill": 353,
      "ke": 354,
      "âĢĻ": 355,
      "so": 356,
      "ha": 357,
      "od": 358,
      "ity": 359,
      "oun": 360,
      "op": 361,
      "ld": 362,
      "ive": 363,
      "by": 364,
      "est": 365,
      "igh": 366,
      "rom": 367,
      "ere": 368,
      "qu": 369,
      "can": 370,
      "iv": 371,
      "em": 372,
      "per": 373,
      "ag": 374,
      "act": 375,
      "um": 376,
      "out": 377,
      "was": 378,
      "from": 379,
      "et": 380,
      "Th": 381,
      "sh": 382,
      "ist": 383,
      "po": 384,
      "ant": 385,
      "ll": 386,
      "ci": 387,
      "In": 388,
      "you": 389,
      "art": 390,
      "not": 391,
      "fe": 392,
      "wor": 393,
      "cl": 394,
      "one": 395,
      "ud": 396,
      "ical": 397,
      "have": 398,
      "gr": 399,
      "du": 400,
      "this": 401,
      "li": 402,
      "co": 403,
      "pr": 404,
      "ort": 405,
      "me": 406,
      "ure": 407,
      "âĢĻs": 408,
      "ich": 409,
      "ma": 410,
      "der": 411,
      "gh": 412,
      "ould": 413,
      "ions": 414,
      "age": 415,
      "str": 416,
      "ib": 417,
      "man": 418,
      "ine": 419,
      "do": 420,
      "ated": 421,
      "ear": 422,
      "use": 423,
      "ome": 424,
      "their": 425,
      "end": 426,
      "ach": 427,
      "ans": 428,
      "dis": 429,
      "ight": 430,
      "ard": 431,
      "ough": 432,
      "your": 433,
      "other": 434,
      "ind": 435,
      "which": 436,
      "ide": 437,
      "ally": 438,
      "ip": 439,
      "they": 440,
      "ous": 441,
      "iz": 442,
      "has": 443,
      "fo": 444,
      "ie": 445,
      "ound": 446,
      "ence": 447,
      "able": 448,
      "cre": 449,
      "will": 450,
      "more": 451,
      "ia": 452,
      "port": 453,
      "pre": 454,
      "form": 455,
      "âĢľ": 456,
      "up": 457,
      "âĢĿ": 458,
      "fer": 459,
      "ast": 460,
      "ong": 461,
      "ass": 462,
      "ial": 463,
      "ca": 464,
      "ish": 465,
      "king": 466,
      "go": 467,
      "its": 468,
      "ater": 469,
      "ev": 470,
      "el": 471,
      "ction": 472,
      "ary": 473,
      "ph": 474,
      "tim": 475,
      "ple": 476,
      "av": 477,
      "cr": 478,
      "sy": 479,
      "ild": 480,
      "low": 481,
      "ks": 482,
      "ire": 483,
      "af": 484,
      "but": 485,
      "ations": 486,
      "og": 487,
      "now": 488,
      "cont": 489,
      "ust": 490,
      "were": 491,
      "ren": 492,
      "pres": 493,
      "ef": 494,
      "also": 495,
      "ents": 496,
      "bo": 497,
      "ta": 498,
      "ign": 499,
      "br": 500,
      "ber": 501,
      "comm": 502,
      "Wh": 503,
      "cess": 504,
      "ace": 505,
      "part": 506,
      "ame": 507,
      "bl": 508,
      "It": 509,
      "pos": 510,
      "spe": 511,
      "This": 512,
      "way": 513,
      "ance": 514,
      "who": 515,
      "ition": 516,
      "ice": 517,
      "'s": 518,
      "no": 519,
      "ase": 520,
      "ack": 521,
      "very": 522,
      "some": 523,
      "gen": 524,
      "about": 525,
      "cent": 526,
      "stud": 527,
      "ite": 528,
      "ens": 529,
      "ep": 530,
      "sp": 531,
      "ory": 532,
      "ty": 533,
      "them": 534,
      "ang": 535,
      "inter": 536,
      "ces": 537,
      "ser": 538,
      "his": 539,
      "any": 540,
      "over": 541,
      "than": 542,
      "ors": 543,
      "col": 544,
      "dr": 545,
      "Ch": 546,
      "ree": 547,
      "year": 548,
      "fect": 549,
      "An": 550,
      "cor": 551,
      "may": 552,
      "most": 553,
      "ile": 554,
      "own": 555,
      "int": 556,
      "ople": 557,
      "St": 558,
      "ates": 559,
      "work": 560,
      "aw": 561,
      "time": 562,
      "like": 563,
      "bet": 564,
      "reat": 565,
      "ian": 566,
      "dif": 567,
      "when": 568,
      "used": 569,
      "cur": 570,
      "been": 571,
      "olog": 572,
      "fr": 573,
      "there": 574,
      "ult": 575,
      "how": 576,
      "alth": 577,
      "into": 578,
      "comp": 579,
      "arch": 580,
      "day": 581,
      "ob": 582,
      "âĢĵ": 583,
      "pt": 584,
      "ings": 585,
      "fl": 586,
      "hel": 587,
      "people": 588,
      "wo": 589,
      "these": 590,
      "know": 591,
      "new": 592,
      "des": 593,
      "ful": 594,
      "prov": 595,
      "ok": 596,
      "mer": 597,
      "cho": 598,
      "ual": 599,
      "ms": 600,
      "stem": 601,
      "row": 602,
      "lop": 603,
      "land": 604,
      "had": 605,
      "vers": 606,
      "fir": 607,
      "ific": 608,
      "je": 609,
      "ities": 610,
      "lect": 611,
      "cause": 612,
      "incl": 613,
      "under": 614,
      "Un": 615,
      "sa": 616,
      "thr": 617,
      "ue": 618,
      "high": 619,
      "fore": 620,
      "med": 621,
      "min": 622,
      "coun": 623,
      "such": 624,
      "rel": 625,
      "ments": 626,
      "produ": 627,
      "need": 628,
      "ating": 629,
      "ning": 630,
      "only": 631,
      "lear": 632,
      "ied": 633,
      "mon": 634,
      "child": 635,
      "would": 636,
      "velop": 637,
      "get": 638,
      "ck": 639,
      "cer": 640,
      "reg": 641,
      "many": 642,
      "ative": 643,
      "ys": 644,
      "old": 645,
      "ail": 646,
      "cy": 647,
      "what": 648,
      "ext": 649,
      "ject": 650,
      "help": 651,
      "sur": 652,
      "cial": 653,
      "ational": 654,
      "ose": 655,
      "ious": 656,
      "ular": 657,
      "ten": 658,
      "ting": 659,
      "ak": 660,
      "system": 661,
      "ced": 662,
      "her": 663,
      "through": 664,
      "sel": 665,
      "develop": 666,
      "ics": 667,
      "fic": 668,
      "ons": 669,
      "rit": 670,
      "first": 671,
      "red": 672,
      "As": 673,
      "He": 674,
      "differ": 675,
      "vel": 676,
      "water": 677,
      "les": 678,
      "well": 679,
      "ever": 680,
      "cal": 681,
      "ath": 682,
      "We": 683,
      "ise": 684,
      "two": 685,
      "tain": 686,
      "par": 687,
      "add": 688,
      "mar": 689,
      "stru": 690,
      "read": 691,
      "stand": 692,
      "Re": 693,
      "where": 694,
      "au": 695,
      "ble": 696,
      "bu": 697,
      "ility": 698,
      "ss": 699,
      "ress": 700,
      "less": 701,
      "ict": 702,
      "ible": 703,
      "lif": 704,
      "ubl": 705,
      "uring": 706,
      "ange": 707,
      "health": 708,
      "cond": 709,
      "ased": 710,
      "car": 711,
      "sup": 712,
      "sul": 713,
      "als": 714,
      "should": 715,
      "search": 716,
      "serv": 717,
      "ra": 718,
      "ween": 719,
      "oc": 720,
      "inv": 721,
      "vir": 722,
      "att": 723,
      "come": 724,
      "main": 725,
      "cons": 726,
      "di": 727,
      "ick": 728,
      "lar": 729,
      "pers": 730,
      "air": 731,
      "requ": 732,
      "sub": 733,
      "long": 734,
      "between": 735,
      "years": 736,
      "ins": 737,
      "If": 738,
      "gan": 739,
      "os": 740,
      "my": 741,
      "For": 742,
      "ures": 743,
      "pol": 744,
      "trans": 745,
      "plan": 746,
      "could": 747,
      "peri": 748,
      "tern": 749,
      "fin": 750,
      "ution": 751,
      "try": 752,
      "just": 753,
      "then": 754,
      "eng": 755,
      "make": 756,
      "ese": 757,
      "thing": 758,
      "ew": 759,
      "chool": 760,
      "En": 761,
      "ds": 762,
      "ho": 763,
      "chn": 764,
      "exam": 765,
      "ily": 766,
      "How": 767,
      "âĢĶ": 768,
      "import": 769,
      "see": 770,
      "fact": 771,
      "iss": 772,
      "spec": 773,
      "num": 774,
      "ural": 775,
      "ident": 776,
      "formation": 777,
      "includ": 778,
      "after": 779,
      "incre": 780,
      "gy": 781,
      "research": 782,
      "âĢĻt": 783,
      "effect": 784,
      "ited": 785,
      "fun": 786,
      "tem": 787,
      "even": 788,
      "uc": 789,
      "meric": 790,
      "ted": 791,
      "different": 792,
      "uch": 793,
      "each": 794,
      "Ar": 795,
      "gener": 796,
      "Americ": 797,
      "sim": 798,
      "world": 799,
      "ology": 800,
      "pat": 801,
      "life": 802,
      "sure": 803,
      "De": 804,
      "because": 805,
      "val": 806,
      "call": 807,
      "found": 808,
      "Al": 809,
      "vis": 810,
      "ters": 811,
      "var": 812,
      "ata": 813,
      "led": 814,
      "ness": 815,
      "ists": 816,
      "Con": 817,
      "app": 818,
      "hum": 819,
      "set": 820,
      "ink": 821,
      "che": 822,
      "vent": 823,
      "cus": 824,
      "sign": 825,
      "ature": 826,
      "hy": 827,
      "fol": 828,
      "ri": 829,
      "ives": 830,
      "ower": 831,
      "sm": 832,
      "being": 833,
      "ages": 834,
      "ety": 835,
      "publ": 836,
      "gram": 837,
      "urn": 838,
      "ically": 839,
      "those": 840,
      "There": 841,
      "bod": 842,
      "io": 843,
      "using": 844,
      "ism": 845,
      "children": 846,
      "process": 847,
      "ps": 848,
      "Com": 849,
      "every": 850,
      "sk": 851,
      "cour": 852,
      "They": 853,
      "back": 854,
      "sol": 855,
      "soci": 856,
      "said": 857,
      "gu": 858,
      "self": 859,
      "blo": 860,
      "resul": 861,
      "ris": 862,
      "iew": 863,
      "ved": 864,
      "techn": 865,
      "ices": 866,
      "off": 867,
      "ivers": 868,
      "cord": 869,
      "commun": 870,
      "partic": 871,
      "present": 872,
      "important": 873,
      "vi": 874,
      "say": 875,
      "fam": 876,
      "level": 877,
      "ases": 878,
      "pect": 879,
      "ener": 880,
      "ves": 881,
      "arm": 882,
      "food": 883,
      "lead": 884,
      "much": 885,
      "grow": 886,
      "Pro": 887,
      "ider": 888,
      "cell": 889,
      "resp": 890,
      "bre": 891,
      "person": 892,
      "ry": 893,
      "though": 894,
      "gl": 895,
      "during": 896,
      "press": 897,
      "mem": 898,
      "cept": 899,
      "ize": 900,
      "students": 901,
      "information": 902,
      "line": 903,
      "she": 904,
      "ized": 905,
      "cap": 906,
      "So": 907,
      "made": 908,
      "school": 909,
      "light": 910,
      "take": 911,
      "study": 912,
      "prote": 913,
      "nor": 914,
      "Mo": 915,
      "follow": 916,
      "But": 917,
      "top": 918,
      "does": 919,
      "hist": 920,
      "proble": 921,
      "ways": 922,
      "sci": 923,
      "power": 924,
      "data": 925,
      "good": 926,
      "gg": 927,
      "ines": 928,
      "find": 929,
      "What": 930,
      "same": 931,
      "char": 932,
      "You": 933,
      "ric": 934,
      "dep": 935,
      "play": 936,
      "both": 937,
      "tra": 938,
      "por": 939,
      "mat": 940,
      "poss": 941,
      "comple": 942,
      "ude": 943,
      "pop": 944,
      "ward": 945,
      "grou": 946,
      "ability": 947,
      "care": 948,
      "state": 949,
      "while": 950,
      "place": 951,
      "down": 952,
      "body": 953,
      "Be": 954,
      "inst": 955,
      "show": 956,
      "clo": 957,
      "ient": 958,
      "treat": 959,
      "organ": 960,
      "don": 961,
      "New": 962,
      "ality": 963,
      "view": 964,
      "viron": 965,
      "small": 966,
      "often": 967,
      "ix": 968,
      "ving": 969,
      "lit": 970,
      "before": 971,
      "ug": 972,
      "To": 973,
      "ivid": 974,
      "ner": 975,
      "hand": 976,
      "put": 977,
      "dise": 978,
      "ince": 979,
      "issu": 980,
      "order": 981,
      "ship": 982,
      "Se": 983,
      "let": 984,
      "la": 985,
      "again": 986,
      "plic": 987,
      "ants": 988,
      "activ": 989,
      "contro": 990,
      "struct": 991,
      "class": 992,
      "When": 993,
      "ger": 994,
      "mal": 995,
      "gre": 996,
      "number": 997,
      "net": 998,
      "omen": 999,
      "known": 1000,
      "trib": 1001,
      "design": 1002,
      "allow": 1003,
      "These": 1004,
      "del": 1005,
      "ished": 1006,
      "ars": 1007,
      "On": 1008,
      "exp": 1009,
      "around": 1010,
      "appro": 1011,
      "And": 1012,
      "human": 1013,
      "test": 1014,
      "him": 1015,
      "program": 1016,
      "ences": 1017,
      "vironment": 1018,
      "tal": 1019,
      "ven": 1020,
      "right": 1021,
      "leg": 1022,
      "three": 1023,
      "cover": 1024,
      "writ": 1025,
      "gover": 1026,
      "ides": 1027,
      "tle": 1028,
      "redu": 1029,
      "elect": 1030,
      "sum": 1031,
      "irect": 1032,
      "sever": 1033,
      "example": 1034,
      "bal": 1035,
      "lim": 1036,
      "iving": 1037,
      "cle": 1038,
      "ute": 1039,
      "change": 1040,
      "flu": 1041,
      "called": 1042,
      "including": 1043,
      "kes": 1044,
      "aren": 1045,
      "ord": 1046,
      "iversity": 1047,
      "ield": 1048,
      "must": 1049,
      "grap": 1050,
      "based": 1051,
      "eas": 1052,
      "âĢĺ": 1053,
      "build": 1054,
      "contin": 1055,
      "ital": 1056,
      "large": 1057,
      "ub": 1058,
      "ulation": 1059,
      "teach": 1060,
      "mot": 1061,
      "sing": 1062,
      "ually": 1063,
      "turn": 1064,
      "Ex": 1065,
      "great": 1066,
      "acter": 1067,
      "ash": 1068,
      "consider": 1069,
      "educ": 1070,
      "mp": 1071,
      "equ": 1072,
      "point": 1073,
      "Is": 1074,
      "govern": 1075,
      "ross": 1076,
      "ared": 1077,
      "understand": 1078,
      "ury": 1079,
      "support": 1080,
      "did": 1081,
      "public": 1082,
      "ional": 1083,
      "ton": 1084,
      "product": 1085,
      "imp": 1086,
      "ouse": 1087,
      "itions": 1088,
      "oper": 1089,
      "start": 1090,
      "experi": 1091,
      "conom": 1092,
      "chang": 1093,
      "ather": 1094,
      "pract": 1095,
      "dec": 1096,
      "move": 1097,
      "quest": 1098,
      "fac": 1099,
      "Pr": 1100,
      "aterial": 1101,
      "bi": 1102,
      "too": 1103,
      "Res": 1104,
      "men": 1105,
      "ential": 1106,
      "uro": 1107,
      "require": 1108,
      "outh": 1109,
      "still": 1110,
      "typ": 1111,
      "ividual": 1112,
      "curren": 1113,
      "emp": 1114,
      "vol": 1115,
      "prof": 1116,
      "ids": 1117,
      "war": 1118,
      "energy": 1119,
      "adv": 1120,
      "uses": 1121,
      "appe": 1122,
      "sit": 1123,
      "pur": 1124,
      "ately": 1125,
      "However": 1126,
      "American": 1127,
      "might": 1128,
      "iven": 1129,
      "pot": 1130,
      "term": 1131,
      "pain": 1132,
      "ave": 1133,
      "depend": 1134,
      "thod": 1135,
      "miss": 1136,
      "ond": 1137,
      "want": 1138,
      "few": 1139,
      "face": 1140,
      "environment": 1141,
      "nat": 1142,
      "Tr": 1143,
      "came": 1144,
      "head": 1145,
      "anal": 1146,
      "within": 1147,
      "ben": 1148,
      "home": 1149,
      "itive": 1150,
      "ization": 1151,
      "At": 1152,
      "phys": 1153,
      "gn": 1154,
      "pass": 1155,
      "development": 1156,
      "individual": 1157,
      "material": 1158,
      "learn": 1159,
      "Ad": 1160,
      "loc": 1161,
      "without": 1162,
      "social": 1163,
      "ources": 1164,
      "common": 1165,
      "iqu": 1166,
      "jo": 1167,
      "bers": 1168,
      "cording": 1169,
      "ron": 1170,
      "inal": 1171,
      "mic": 1172,
      "University": 1173,
      "Wor": 1174,
      "mill": 1175,
      "ights": 1176,
      "disease": 1177,
      "action": 1178,
      "mus": 1179,
      "direct": 1180,
      "risk": 1181,
      "dist": 1182,
      "ark": 1183,
      "ived": 1184,
      "project": 1185,
      "ier": 1186,
      "til": 1187,
      "ason": 1188,
      "und": 1189,
      "econom": 1190,
      "sto": 1191,
      "cult": 1192,
      "meas": 1193,
      "plant": 1194,
      "ade": 1195,
      "report": 1196,
      "ium": 1197,
      "law": 1198,
      "possible": 1199,
      "area": 1200,
      "iness": 1201,
      "ples": 1202,
      "ask": 1203,
      "met": 1204,
      "book": 1205,
      "blood": 1206,
      "ye": 1207,
      "thor": 1208,
      "beli": 1209,
      "indu": 1210,
      "nam": 1211,
      "ove": 1212,
      "real": 1213,
      "jor": 1214,
      "angu": 1215,
      "gin": 1216,
      "last": 1217,
      "look": 1218,
      "best": 1219,
      "bas": 1220,
      "ains": 1221,
      "women": 1222,
      "Bo": 1223,
      "arr": 1224,
      "ake": 1225,
      "another": 1226,
      "ah": 1227,
      "include": 1228,
      "keep": 1229,
      "stit": 1230,
      "ore": 1231,
      "vari": 1232,
      "ele": 1233,
      "control": 1234,
      "mil": 1235,
      "early": 1236,
      "non": 1237,
      "proper": 1238,
      "dom": 1239,
      "ense": 1240,
      "here": 1241,
      "anim": 1242,
      "comes": 1243,
      "government": 1244,
      "Le": 1245,
      "suc": 1246,
      "Ind": 1247,
      "ran": 1248,
      "ref": 1249,
      "better": 1250,
      "ues": 1251,
      "bor": 1252,
      "become": 1253,
      "Nor": 1254,
      "ination": 1255,
      "cing": 1256,
      "second": 1257,
      "Col": 1258,
      "dam": 1259,
      "usu": 1260,
      "history": 1261,
      "feel": 1262,
      "Can": 1263,
      "rad": 1264,
      "name": 1265,
      "avail": 1266,
      "ency": 1267,
      "group": 1268,
      "ket": 1269,
      "Jo": 1270,
      "free": 1271,
      "'t": 1272,
      "ource": 1273,
      "tion": 1274,
      "bus": 1275,
      "ste": 1276,
      "method": 1277,
      "against": 1278,
      "ban": 1279,
      "itional": 1280,
      "ground": 1281,
      "All": 1282,
      "Dr": 1283,
      "Pl": 1284,
      "learning": 1285,
      "ests": 1286,
      "major": 1287,
      "ones": 1288,
      "post": 1289,
      "open": 1290,
      "itical": 1291,
      "national": 1292,
      "enter": 1293,
      "field": 1294,
      "family": 1295,
      "ills": 1296,
      "ients": 1297,
      "ories": 1298,
      "ify": 1299,
      "provide": 1300,
      "particular": 1301,
      "near": 1302,
      "ken": 1303,
      "mun": 1304,
      "current": 1305,
      "certain": 1306,
      "hold": 1307,
      "ended": 1308,
      "United": 1309,
      "Co": 1310,
      "cost": 1311,
      "means": 1312,
      "cu": 1313,
      "mean": 1314,
      "icle": 1315,
      "ats": 1316,
      "Or": 1317,
      "type": 1318,
      "happ": 1319,
      "percent": 1320,
      "period": 1321,
      "aim": 1322,
      "several": 1323,
      "US": 1324,
      "cut": 1325,
      "ified": 1326,
      "list": 1327,
      "flow": 1328,
      "species": 1329,
      "signific": 1330,
      "lab": 1331,
      "benef": 1332,
      "invol": 1333,
      "run": 1334,
      "Ac": 1335,
      "One": 1336,
      "Ro": 1337,
      "site": 1338,
      "bir": 1339,
      "Ph": 1340,
      "plac": 1341,
      "mit": 1342,
      "scient": 1343,
      "orig": 1344,
      "wee": 1345,
      "cted": 1346,
      "fort": 1347,
      "affect": 1348,
      "ians": 1349,
      "langu": 1350,
      "NA": 1351,
      "side": 1352,
      "amp": 1353,
      "ards": 1354,
      "ply": 1355,
      "ator": 1356,
      "interest": 1357,
      "aper": 1358,
      "road": 1359,
      "ological": 1360,
      "tell": 1361,
      "idence": 1362,
      "access": 1363,
      "az": 1364,
      "remain": 1365,
      "occur": 1366,
      "conne": 1367,
      "God": 1368,
      "dev": 1369,
      "aining": 1370,
      "making": 1371,
      "whe": 1372,
      "Some": 1373,
      "four": 1374,
      "descr": 1375,
      "others": 1376,
      "case": 1377,
      "areas": 1378,
      "tre": 1379,
      "nâĢĻt": 1380,
      "things": 1381,
      "With": 1382,
      "ww": 1383,
      "treatment": 1384,
      "among": 1385,
      "prevent": 1386,
      "available": 1387,
      "ina": 1388,
      "rop": 1389,
      "think": 1390,
      "says": 1391,
      "cul": 1392,
      "month": 1393,
      "since": 1394,
      "times": 1395,
      "ilar": 1396,
      "far": 1397,
      "natural": 1398,
      "trad": 1399,
      "tw": 1400,
      "graph": 1401,
      "local": 1402,
      "country": 1403,
      "model": 1404,
      "room": 1405,
      "ustr": 1406,
      "paren": 1407,
      "States": 1408,
      "systems": 1409,
      "ided": 1410,
      "exper": 1411,
      "house": 1412,
      "prove": 1413,
      "acy": 1414,
      "ft": 1415,
      "Sh": 1416,
      "following": 1417,
      "fil": 1418,
      "rist": 1419,
      "havi": 1420,
      "urther": 1421,
      "key": 1422,
      "Af": 1423,
      "likely": 1424,
      "ably": 1425,
      "acc": 1426,
      "ann": 1427,
      "due": 1428,
      "tru": 1429,
      "ches": 1430,
      "lin": 1431,
      "success": 1432,
      "abl": 1433,
      "ox": 1434,
      "Euro": 1435,
      "problems": 1436,
      "sis": 1437,
      "function": 1438,
      "Mar": 1439,
      "atic": 1440,
      "amoun": 1441,
      "tom": 1442,
      "National": 1443,
      "ready": 1444,
      "cially": 1445,
      "posed": 1446,
      "ots": 1447,
      "rece": 1448,
      "works": 1449,
      "tail": 1450,
      "ale": 1451,
      "cogn": 1452,
      "By": 1453,
      "expl": 1454,
      "significant": 1455,
      "cells": 1456,
      "associ": 1457,
      "little": 1458,
      "Med": 1459,
      "levels": 1460,
      "glo": 1461,
      "wide": 1462,
      "imes": 1463,
      "cir": 1464,
      "specific": 1465,
      "nal": 1466,
      "ior": 1467,
      "ime": 1468,
      "ctor": 1469,
      "tries": 1470,
      "position": 1471,
      "comb": 1472,
      "ls": 1473,
      "course": 1474,
      "ances": 1475,
      "problem": 1476,
      "ax": 1477,
      "sequ": 1478,
      "result": 1479,
      "pan": 1480,
      "industr": 1481,
      "clear": 1482,
      "imate": 1483,
      "hard": 1484,
      "words": 1485,
      "Europe": 1486,
      "later": 1487,
      "days": 1488,
      "century": 1489,
      "centr": 1490,
      "aster": 1491,
      "Pe": 1492,
      "youn": 1493,
      "pet": 1494,
      "short": 1495,
      "usually": 1496,
      "mis": 1497,
      "given": 1498,
      "invest": 1499,
      "rest": 1500,
      "education": 1501,
      "toms": 1502,
      "oid": 1503,
      "mult": 1504,
      "defin": 1505,
      "tract": 1506,
      "ledge": 1507,
      "gether": 1508,
      "until": 1509,
      "sugg": 1510,
      "oks": 1511,
      "agement": 1512,
      "object": 1513,
      "Sci": 1514,
      "No": 1515,
      "technology": 1516,
      "aged": 1517,
      "uture": 1518,
      "related": 1519,
      "author": 1520,
      "Gr": 1521,
      "behavi": 1522,
      "along": 1523,
      "hal": 1524,
      "cancer": 1525,
      "ision": 1526,
      "rele": 1527,
      "ends": 1528,
      "sc": 1529,
      "working": 1530,
      "itâĢĻs": 1531,
      "exist": 1532,
      "symp": 1533,
      "mind": 1534,
      "That": 1535,
      "temper": 1536,
      "ont": 1537,
      "lands": 1538,
      "ither": 1539,
      "death": 1540,
      "cuss": 1541,
      "space": 1542,
      "effective": 1543,
      "lower": 1544,
      "Ear": 1545,
      "increase": 1546,
      "Christ": 1547,
      "hn": 1548,
      "ication": 1549,
      "results": 1550,
      "heart": 1551,
      "ought": 1552,
      "seem": 1553,
      "something": 1554,
      "refer": 1555,
      "create": 1556,
      "aps": 1557,
      "recent": 1558,
      "community": 1559,
      "son": 1560,
      "eth": 1561,
      "plants": 1562,
      "ained": 1563,
      "wr": 1564,
      "necess": 1565,
      "quality": 1566,
      "always": 1567,
      "similar": 1568,
      "ush": 1569,
      "fish": 1570,
      "fall": 1571,
      "together": 1572,
      "II": 1573,
      "word": 1574,
      "diffic": 1575,
      "suf": 1576,
      "step": 1577,
      "bur": 1578,
      "language": 1579,
      "atch": 1580,
      "Ger": 1581,
      "Go": 1582,
      "million": 1583,
      "sw": 1584,
      "Afr": 1585,
      "den": 1586,
      "give": 1587,
      "vious": 1588,
      "hor": 1589,
      "needs": 1590,
      "why": 1591,
      "today": 1592,
      "conditions": 1593,
      "hol": 1594,
      "While": 1595,
      "aring": 1596,
      "ler": 1597,
      "bit": 1598,
      "profess": 1599,
      "population": 1600,
      "ned": 1601,
      "Of": 1602,
      "strong": 1603,
      "Afric": 1604,
      "experience": 1605,
      "approach": 1606,
      "mission": 1607,
      "tar": 1608,
      "Po": 1609,
      "brain": 1610,
      "ently": 1611,
      "complete": 1612,
      "across": 1613,
      "applic": 1614,
      "loy": 1615,
      "character": 1616,
      "Do": 1617,
      "future": 1618,
      "various": 1619,
      "asing": 1620,
      "nut": 1621,
      "bon": 1622,
      "iver": 1623,
      "relation": 1624,
      "higher": 1625,
      "changes": 1626,
      "espe": 1627,
      "kind": 1628,
      "special": 1629,
      "going": 1630,
      "away": 1631,
      "Sy": 1632,
      "especially": 1633,
      "ensive": 1634,
      "hab": 1635,
      "har": 1636,
      "ped": 1637,
      "countries": 1638,
      "ators": 1639,
      "above": 1640,
      "sens": 1641,
      "establ": 1642,
      "mag": 1643,
      "business": 1644,
      "âĢĻre": 1645,
      "sal": 1646,
      "respons": 1647,
      "âĢ¦": 1648,
      "ling": 1649,
      "ctions": 1650,
      "improve": 1651,
      "ours": 1652,
      "active": 1653,
      "begin": 1654,
      "next": 1655,
      "ental": 1656,
      "least": 1657,
      "big": 1658,
      "production": 1659,
      "tribut": 1660,
      "atures": 1661,
      "tool": 1662,
      "aut": 1663,
      "reach": 1664,
      "web": 1665,
      "moder": 1666,
      "however": 1667,
      "Brit": 1668,
      "ised": 1669,
      "ured": 1670,
      "team": 1671,
      "role": 1672,
      "tt": 1673,
      "effects": 1674,
      "issue": 1675,
      "issues": 1676,
      "rodu": 1677,
      "types": 1678,
      "formed": 1679,
      "iate": 1680,
      "earch": 1681,
      "ene": 1682,
      "ays": 1683,
      "past": 1684,
      "oney": 1685,
      "patients": 1686,
      "eral": 1687,
      "Ne": 1688,
      "never": 1689,
      "John": 1690,
      "count": 1691,
      "ilities": 1692,
      "ysis": 1693,
      "prim": 1694,
      "uter": 1695,
      "expect": 1696,
      "concer": 1697,
      "aves": 1698,
      "ateg": 1699,
      "fully": 1700,
      "atory": 1701,
      "After": 1702,
      "lot": 1703,
      "selves": 1704,
      "ane": 1705,
      "having": 1706,
      "young": 1707,
      "city": 1708,
      "influ": 1709,
      "ique": 1710,
      "enough": 1711,
      "left": 1712,
      "chan": 1713,
      "grad": 1714,
      "ening": 1715,
      "cases": 1716,
      "ired": 1717,
      "ially": 1718,
      "lack": 1719,
      "science": 1720,
      "full": 1721,
      "ster": 1722,
      "tic": 1723,
      "stre": 1724,
      "Me": 1725,
      "Car": 1726,
      "Health": 1727,
      "rate": 1728,
      "general": 1729,
      "pression": 1730,
      "range": 1731,
      "aging": 1732,
      "studies": 1733,
      "loss": 1734,
      "bar": 1735,
      "World": 1736,
      "War": 1737,
      "live": 1738,
      "knowledge": 1739,
      "gress": 1740,
      "impact": 1741,
      "gar": 1742,
      "ik": 1743,
      "ention": 1744,
      "Te": 1745,
      "Stud": 1746,
      "text": 1747,
      "offic": 1748,
      "offer": 1749,
      "activity": 1750,
      "discuss": 1751,
      "symptoms": 1752,
      "ands": 1753,
      "subject": 1754,
      "dig": 1755,
      "ires": 1756,
      "Engl": 1757,
      "whether": 1758,
      "uel": 1759,
      "CO": 1760,
      "eds": 1761,
      "Dis": 1762,
      "physical": 1763,
      "Cl": 1764,
      "growth": 1765,
      "paper": 1766,
      "oto": 1767,
      "mid": 1768,
      "English": 1769,
      "pose": 1770,
      "ley": 1771,
      "omet": 1772,
      "donâĢĻt": 1773,
      "IS": 1774,
      "Coun": 1775,
      "weight": 1776,
      "focus": 1777,
      "termin": 1778,
      "became": 1779,
      "building": 1780,
      "makes": 1781,
      "amin": 1782,
      "Ge": 1783,
      "thern": 1784,
      "wind": 1785,
      "inking": 1786,
      "chall": 1787,
      "polic": 1788,
      "reason": 1789,
      "represent": 1790,
      "amount": 1791,
      "labor": 1792,
      "story": 1793,
      "ined": 1794,
      "chem": 1795,
      "further": 1796,
      "seen": 1797,
      "mor": 1798,
      "minis": 1799,
      "Man": 1800,
      "ae": 1801,
      "acts": 1802,
      "colle": 1803,
      "ables": 1804,
      "force": 1805,
      "protect": 1806,
      "fri": 1807,
      "She": 1808,
      "developed": 1809,
      "org": 1810,
      "uation": 1811,
      "lines": 1812,
      "Research": 1813,
      "uary": 1814,
      "indic": 1815,
      "acks": 1816,
      "stat": 1817,
      "toward": 1818,
      "groups": 1819,
      "value": 1820,
      "question": 1821,
      "five": 1822,
      "sun": 1823,
      "ilt": 1824,
      "Cal": 1825,
      "conf": 1826,
      "May": 1827,
      "products": 1828,
      "close": 1829,
      "particip": 1830,
      "iting": 1831,
      "ending": 1832,
      "ames": 1833,
      "difficult": 1834,
      "potential": 1835,
      "tow": 1836,
      "def": 1837,
      "mass": 1838,
      "plement": 1839,
      "neg": 1840,
      "mark": 1841,
      "Not": 1842,
      "itor": 1843,
      "istic": 1844,
      "oil": 1845,
      "coming": 1846,
      "already": 1847,
      "ru": 1848,
      "healthy": 1849,
      "activities": 1850,
      "event": 1851,
      "South": 1852,
      "oking": 1853,
      "draw": 1854,
      "source": 1855,
      "surface": 1856,
      "sent": 1857,
      "below": 1858,
      "taken": 1859,
      "drug": 1860,
      "size": 1861,
      "erc": 1862,
      "really": 1863,
      "article": 1864,
      "SA": 1865,
      "sof": 1866,
      "forms": 1867,
      "skills": 1868,
      "achie": 1869,
      "pay": 1870,
      "load": 1871,
      "white": 1872,
      "diag": 1873,
      "init": 1874,
      "recogn": 1875,
      "pread": 1876,
      "done": 1877,
      "cop": 1878,
      "climate": 1879,
      "either": 1880,
      "inte": 1881,
      "lay": 1882,
      "resources": 1883,
      "according": 1884,
      "struction": 1885,
      "actions": 1886,
      "mach": 1887,
      "single": 1888,
      "aver": 1889,
      "ints": 1890,
      "introdu": 1891,
      "rather": 1892,
      "ibility": 1893,
      "hip": 1894,
      "inci": 1895,
      "evol": 1896,
      "soil": 1897,
      "North": 1898,
      "economic": 1899,
      "addition": 1900,
      "reduce": 1901,
      "ER": 1902,
      "Fe": 1903,
      "ank": 1904,
      "oman": 1905,
      "ched": 1906,
      "gas": 1907,
      "xim": 1908,
      "once": 1909,
      "covered": 1910,
      "ns": 1911,
      "effic": 1912,
      "medical": 1913,
      "atter": 1914,
      "urch": 1915,
      "frequ": 1916,
      "parts": 1917,
      "mber": 1918,
      "histor": 1919,
      "claim": 1920,
      "Inter": 1921,
      "collect": 1922,
      "gest": 1923,
      "engine": 1924,
      "ification": 1925,
      "observ": 1926,
      "pressure": 1927,
      "syn": 1928,
      "writing": 1929,
      "ago": 1930,
      "member": 1931,
      "dem": 1932,
      "anger": 1933,
      "researchers": 1934,
      "ison": 1935,
      "ival": 1936,
      "states": 1937,
      "members": 1938,
      "half": 1939,
      "outs": 1940,
      "ometimes": 1941,
      "skin": 1942,
      "America": 1943,
      "portun": 1944,
      "thir": 1945,
      "bot": 1946,
      "sed": 1947,
      "answ": 1948,
      "vo": 1949,
      "week": 1950,
      "associated": 1951,
      "Many": 1952,
      "dict": 1953,
      "fail": 1954,
      "evidence": 1955,
      "aking": 1956,
      "created": 1957,
      "prob": 1958,
      "living": 1959,
      "black": 1960,
      "crip": 1961,
      "Gu": 1962,
      "ering": 1963,
      "fat": 1964,
      "leep": 1965,
      "considered": 1966,
      "recomm": 1967,
      "photo": 1968,
      "whole": 1969,
      "questions": 1970,
      "detail": 1971,
      "suggest": 1972,
      "increased": 1973,
      "ivil": 1974,
      "wood": 1975,
      "sound": 1976,
      "scal": 1977,
      "understanding": 1978,
      "meet": 1979,
      "address": 1980,
      "modern": 1981,
      "condu": 1982,
      "sych": 1983,
      "published": 1984,
      "explo": 1985,
      "path": 1986,
      "htt": 1987,
      "continu": 1988,
      "political": 1989,
      "analysis": 1990,
      "actually": 1991,
      "utions": 1992,
      "stress": 1993,
      "round": 1994,
      "normal": 1995,
      "mb": 1996,
      "famil": 1997,
      "Per": 1998,
      "necessary": 1999,
      "green": 2000,
      "Br": 2001,
      "relationship": 2002,
      "nature": 2003,
      "Fr": 2004,
      "feed": 2005,
      "required": 2006,
      "flo": 2007,
      "opportun": 2008,
      "Ser": 2009,
      "igr": 2010,
      "pie": 2011,
      "upon": 2012,
      "Hist": 2013,
      "needed": 2014,
      "ports": 2015,
      "quick": 2016,
      "themselves": 2017,
      "ges": 2018,
      "personal": 2019,
      "ork": 2020,
      "relig": 2021,
      "simple": 2022,
      "animals": 2023,
      "global": 2024,
      "enn": 2025,
      "practice": 2026,
      "His": 2027,
      "Act": 2028,
      "ID": 2029,
      "materials": 2030,
      "complex": 2031,
      "cannot": 2032,
      "ising": 2033,
      "iding": 2034,
      "micro": 2035,
      "taking": 2036,
      "management": 2037,
      "produce": 2038,
      "condition": 2039,
      "sam": 2040,
      "diet": 2041,
      "return": 2042,
      "bro": 2043,
      "ened": 2044,
      "ey": 2045,
      "maintain": 2046,
      "company": 2047,
      "illed": 2048,
      "ses": 2049,
      "dy": 2050,
      "medic": 2051,
      "Des": 2052,
      "fed": 2053,
      "Earth": 2054,
      "lives": 2055,
      "safe": 2056,
      "chemical": 2057,
      "infect": 2058,
      "Most": 2059,
      "thought": 2060,
      "ged": 2061,
      "bed": 2062,
      "Ap": 2063,
      "won": 2064,
      "priv": 2065,
      "idea": 2066,
      "spir": 2067,
      "squ": 2068,
      "entire": 2069,
      "factors": 2070,
      "liter": 2071,
      "Pres": 2072,
      "student": 2073,
      "appear": 2074,
      "spr": 2075,
      "fire": 2076,
      "money": 2077,
      "assess": 2078,
      "almost": 2079,
      "chol": 2080,
      "ournal": 2081,
      "lying": 2082,
      "More": 2083,
      "log": 2084,
      "parents": 2085,
      "rect": 2086,
      "services": 2087,
      "reading": 2088,
      "curity": 2089,
      "describ": 2090,
      "compan": 2091,
      "hib": 2092,
      "Eng": 2093,
      "ung": 2094,
      "provides": 2095,
      "Lo": 2096,
      "exerc": 2097,
      "sex": 2098,
      "afety": 2099,
      "built": 2100,
      "une": 2101,
      "rights": 2102,
      "color": 2103,
      "eve": 2104,
      "dle": 2105,
      "ivity": 2106,
      "Although": 2107,
      "ItâĢĻs": 2108,
      "measure": 2109,
      "months": 2110,
      "stant": 2111,
      "Ab": 2112,
      "State": 2113,
      "link": 2114,
      "six": 2115,
      "ES": 2116,
      "regular": 2117,
      "docu": 2118,
      "York": 2119,
      "itself": 2120,
      "ney": 2121,
      "ping": 2122,
      "dro": 2123,
      "record": 2124,
      "dog": 2125,
      "Pol": 2126,
      "computer": 2127,
      "took": 2128,
      "itary": 2129,
      "online": 2130,
      "Canad": 2131,
      "alk": 2132,
      "ief": 2133,
      "popular": 2134,
      "heat": 2135,
      "job": 2136,
      "Par": 2137,
      "ption": 2138,
      "Austr": 2139,
      "structure": 2140,
      "clean": 2141,
      "Sp": 2142,
      "cup": 2143,
      "emer": 2144,
      "began": 2145,
      "regard": 2146,
      "smo": 2147,
      "IN": 2148,
      "Here": 2149,
      "separ": 2150,
      "bacter": 2151,
      "content": 2152,
      "night": 2153,
      "increasing": 2154,
      "sha": 2155,
      "izing": 2156,
      "print": 2157,
      "bul": 2158,
      "region": 2159,
      "diagno": 2160,
      "partment": 2161,
      "temperature": 2162,
      "inc": 2163,
      "throughout": 2164,
      "usion": 2165,
      "Im": 2166,
      "service": 2167,
      "respon": 2168,
      "rich": 2169,
      "market": 2170,
      "cit": 2171,
      "ded": 2172,
      "princi": 2173,
      "total": 2174,
      "fig": 2175,
      "ze": 2176,
      "immun": 2177,
      "rap": 2178,
      "pattern": 2179,
      "individuals": 2180,
      "stor": 2181,
      "iation": 2182,
      "avoid": 2183,
      "break": 2184,
      "aud": 2185,
      "lling": 2186,
      "yet": 2187,
      "AR": 2188,
      "ery": 2189,
      "British": 2190,
      "ming": 2191,
      "carbon": 2192,
      "AN": 2193,
      "resist": 2194,
      "Cent": 2195,
      "utes": 2196,
      "shows": 2197,
      "Qu": 2198,
      "vide": 2199,
      "society": 2200,
      "verse": 2201,
      "respect": 2202,
      "rul": 2203,
      "apy": 2204,
      "School": 2205,
      "tur": 2206,
      "schools": 2207,
      "spect": 2208,
      "deli": 2209,
      "consum": 2210,
      "According": 2211,
      "ike": 2212,
      "mental": 2213,
      "training": 2214,
      "decl": 2215,
      "positive": 2216,
      "cular": 2217,
      "forest": 2218,
      "terms": 2219,
      "designed": 2220,
      "abs": 2221,
      "Your": 2222,
      "behavior": 2223,
      "mother": 2224,
      "lex": 2225,
      "sense": 2226,
      "heav": 2227,
      "share": 2228,
      "anced": 2229,
      "previous": 2230,
      "vit": 2231,
      "longer": 2232,
      "experim": 2233,
      "sl": 2234,
      "From": 2235,
      "reng": 2236,
      "Other": 2237,
      "easy": 2238,
      "tro": 2239,
      "hood": 2240,
      "caused": 2241,
      "fru": 2242,
      "sleep": 2243,
      "spread": 2244,
      "reli": 2245,
      "hours": 2246,
      "viol": 2247,
      "aware": 2248,
      "threat": 2249,
      "Pre": 2250,
      "meaning": 2251,
      "environmental": 2252,
      "aily": 2253,
      "extre": 2254,
      "fection": 2255,
      "aft": 2256,
      "reed": 2257,
      "books": 2258,
      "Our": 2259,
      "farm": 2260,
      "ners": 2261,
      "matter": 2262,
      "industry": 2263,
      "Will": 2264,
      "yle": 2265,
      "causes": 2266,
      "thus": 2267,
      "surv": 2268,
      "employ": 2269,
      "Ed": 2270,
      "lor": 2271,
      "Jew": 2272,
      "cies": 2273,
      "stop": 2274,
      "determin": 2275,
      "Cor": 2276,
      "forman": 2277,
      "benefits": 2278,
      "cas": 2279,
      "Har": 2280,
      "scre": 2281,
      "estern": 2282,
      "rown": 2283,
      "ades": 2284,
      "page": 2285,
      "true": 2286,
      "fem": 2287,
      "average": 2288,
      "Instit": 2289,
      "opt": 2290,
      "ips": 2291,
      "bring": 2292,
      "India": 2293,
      "apan": 2294,
      "contain": 2295,
      "ulations": 2296,
      "ford": 2297,
      "review": 2298,
      "shown": 2299,
      "dete": 2300,
      "ties": 2301,
      "hom": 2302,
      "dest": 2303,
      "Mon": 2304,
      "late": 2305,
      "itis": 2306,
      "written": 2307,
      "aving": 2308,
      "bill": 2309,
      "www": 2310,
      "Ã©": 2311,
      "ood": 2312,
      "itch": 2313,
      "provided": 2314,
      "ults": 2315,
      "ronic": 2316,
      "aid": 2317,
      "AT": 2318,
      "attle": 2319,
      "eat": 2320,
      "respond": 2321,
      "nation": 2322,
      "Ste": 2323,
      "image": 2324,
      "poor": 2325,
      "bs": 2326,
      "check": 2327,
      "electric": 2328,
      "includes": 2329,
      "vey": 2330,
      "ublic": 2331,
      "variety": 2332,
      "emot": 2333,
      "Her": 2334,
      "habit": 2335,
      "iple": 2336,
      "standard": 2337,
      "deep": 2338,
      "music": 2339,
      "scientists": 2340,
      "tax": 2341,
      "inj": 2342,
      "earth": 2343,
      "Min": 2344,
      "relative": 2345,
      "date": 2346,
      "reported": 2347,
      "etc": 2348,
      "Japan": 2349,
      "ufact": 2350,
      "âĢ¢": 2351,
      "cot": 2352,
      "doing": 2353,
      "helps": 2354,
      "demon": 2355,
      "ife": 2356,
      "streng": 2357,
      "wall": 2358,
      "patient": 2359,
      "iabet": 2360,
      "placed": 2361,
      "lled": 2362,
      "istics": 2363,
      "sometimes": 2364,
      "etic": 2365,
      "uss": 2366,
      "accept": 2367,
      "produced": 2368,
      "methods": 2369,
      "camp": 2370,
      "love": 2371,
      "vision": 2372,
      "culture": 2373,
      "card": 2374,
      "Science": 2375,
      "ging": 2376,
      "nia": 2377,
      "proved": 2378,
      "sust": 2379,
      "King": 2380,
      "iter": 2381,
      "mechan": 2382,
      "damage": 2383,
      "promot": 2384,
      "growing": 2385,
      "migr": 2386,
      "My": 2387,
      "iam": 2388,
      "original": 2389,
      "simply": 2390,
      "greater": 2391,
      "vacc": 2392,
      "contact": 2393,
      "Fir": 2394,
      "rench": 2395,
      "response": 2396,
      "consist": 2397,
      "super": 2398,
      "believe": 2399,
      "aff": 2400,
      "sources": 2401,
      "AS": 2402,
      "progress": 2403,
      "particularly": 2404,
      "foods": 2405,
      "concept": 2406,
      "ball": 2407,
      "remo": 2408,
      "inary": 2409,
      "Am": 2410,
      "suffer": 2411,
      "events": 2412,
      "identify": 2413,
      "formance": 2414,
      "astic": 2415,
      "Ho": 2416,
      "movement": 2417,
      "programs": 2418,
      "front": 2419,
      "icles": 2420,
      "encour": 2421,
      "gard": 2422,
      "rain": 2423,
      "ength": 2424,
      "Austral": 2425,
      "sea": 2426,
      "ites": 2427,
      "ensure": 2428,
      "ension": 2429,
      "China": 2430,
      "cks": 2431,
      "cture": 2432,
      "feet": 2433,
      "origin": 2434,
      "ried": 2435,
      "wa": 2436,
      "Jan": 2437,
      "Now": 2438,
      "inste": 2439,
      "integr": 2440,
      "argu": 2441,
      "involved": 2442,
      "sou": 2443,
      "plied": 2444,
      "compon": 2445,
      "wild": 2446,
      "mix": 2447,
      "foot": 2448,
      "essential": 2449,
      "outside": 2450,
      "challeng": 2451,
      "correct": 2452,
      "n't": 2453,
      "deal": 2454,
      "Sep": 2455,
      "appropr": 2456,
      "pul": 2457,
      "cat": 2458,
      "ino": 2459,
      "getting": 2460,
      "account": 2461,
      "uge": 2462,
      "star": 2463,
      "pict": 2464,
      "looking": 2465,
      "enced": 2466,
      "ai": 2467,
      "ring": 2468,
      "ises": 2469,
      "safety": 2470,
      "answer": 2471,
      "extreme": 2472,
      "First": 2473,
      "Aug": 2474,
      "visit": 2475,
      "hind": 2476,
      "German": 2477,
      "got": 2478,
      "bab": 2479,
      "developing": 2480,
      "Ju": 2481,
      "joy": 2482,
      "born": 2483,
      "ert": 2484,
      "cil": 2485,
      "ral": 2486,
      "contr": 2487,
      "llow": 2488,
      "attention": 2489,
      "fa": 2490,
      "Part": 2491,
      "policy": 2492,
      "sites": 2493,
      "Spe": 2494,
      "era": 2495,
      "serious": 2496,
      "travel": 2497,
      "series": 2498,
      "soph": 2499,
      "apt": 2500,
      "Gener": 2501,
      "takes": 2502,
      "implement": 2503,
      "rup": 2504,
      "infl": 2505,
      "sph": 2506,
      "generally": 2507,
      "manufact": 2508,
      "basic": 2509,
      "teen": 2510,
      "AC": 2511,
      "fast": 2512,
      "held": 2513,
      "fuel": 2514,
      "demonstr": 2515,
      "Child": 2516,
      "During": 2517,
      "IC": 2518,
      "security": 2519,
      "ials": 2520,
      "kids": 2521,
      "points": 2522,
      "select": 2523,
      "div": 2524,
      "colon": 2525,
      "Edu": 2526,
      "third": 2527,
      "cient": 2528,
      "ana": 2529,
      "assist": 2530,
      "independ": 2531,
      "tend": 2532,
      "eye": 2533,
      "guide": 2534,
      "section": 2535,
      "finan": 2536,
      "itation": 2537,
      "graphy": 2538,
      "teachers": 2539,
      "tit": 2540,
      "reas": 2541,
      "allows": 2542,
      "continue": 2543,
      "included": 2544,
      "daily": 2545,
      "dou": 2546,
      "Read": 2547,
      "media": 2548,
      "idge": 2549,
      "numbers": 2550,
      "psych": 2551,
      "board": 2552,
      "ilo": 2553,
      "estim": 2554,
      "vert": 2555,
      "hot": 2556,
      "attem": 2557,
      "mess": 2558,
      "Lear": 2559,
      "IV": 2560,
      "ideas": 2561,
      "slow": 2562,
      "European": 2563,
      "poll": 2564,
      "performance": 2565,
      "pen": 2566,
      "sen": 2567,
      "probably": 2568,
      "atives": 2569,
      "veget": 2570,
      "diseases": 2571,
      "Su": 2572,
      "someone": 2573,
      "aries": 2574,
      "advant": 2575,
      "Educ": 2576,
      "arily": 2577,
      "animal": 2578,
      "cross": 2579,
      "express": 2580,
      "traditional": 2581,
      "orders": 2582,
      "pal": 2583,
      "termine": 2584,
      "eval": 2585,
      "minim": 2586,
      "Center": 2587,
      "bad": 2588,
      "town": 2589,
      "tware": 2590,
      "Oc": 2591,
      "evolution": 2592,
      "equip": 2593,
      "French": 2594,
      "ham": 2595,
      "easily": 2596,
      "Why": 2597,
      "essay": 2598,
      "ministr": 2599,
      "scale": 2600,
      "compared": 2601,
      "wise": 2602,
      "prep": 2603,
      "Intern": 2604,
      "concl": 2605,
      "sco": 2606,
      "added": 2607,
      "started": 2608,
      "birth": 2609,
      "primary": 2610,
      "concentr": 2611,
      "went": 2612,
      "sil": 2613,
      "Even": 2614,
      "sho": 2615,
      "waste": 2616,
      "central": 2617,
      "warm": 2618,
      "communities": 2619,
      "legal": 2620,
      "investig": 2621,
      "pret": 2622,
      "leading": 2623,
      "therefore": 2624,
      "decre": 2625,
      "fav": 2626,
      "infection": 2627,
      "established": 2628,
      "Mic": 2629,
      "Apr": 2630,
      "international": 2631,
      "attack": 2632,
      "Since": 2633,
      "commit": 2634,
      "tree": 2635,
      "companies": 2636,
      "roy": 2637,
      "difference": 2638,
      "tribution": 2639,
      "theory": 2640,
      "quite": 2641,
      "na": 2642,
      "supply": 2643,
      "March": 2644,
      "err": 2645,
      "Fran": 2646,
      "accur": 2647,
      "instead": 2648,
      "civil": 2649,
      "reflect": 2650,
      "leaders": 2651,
      "ifor": 2652,
      "tools": 2653,
      "iabetes": 2654,
      "ountain": 2655,
      "although": 2656,
      "dry": 2657,
      "critical": 2658,
      "thous": 2659,
      "cry": 2660,
      "http": 2661,
      "achieve": 2662,
      "unique": 2663,
      "ding": 2664,
      "ibe": 2665,
      "write": 2666,
      "Char": 2667,
      "imin": 2668,
      "instit": 2669,
      "clin": 2670,
      "iency": 2671,
      "sus": 2672,
      "network": 2673,
      "host": 2674,
      "immed": 2675,
      "limited": 2676,
      "Indian": 2677,
      "determine": 2678,
      "version": 2679,
      "gree": 2680,
      "jud": 2681,
      "soon": 2682,
      "AD": 2683,
      "scientific": 2684,
      "inside": 2685,
      "vention": 2686,
      "negative": 2687,
      "larger": 2688,
      "High": 2689,
      "Califor": 2690,
      "multiple": 2691,
      "analy": 2692,
      "OR": 2693,
      "iet": 2694,
      "quickly": 2695,
      "tox": 2696,
      "isions": 2697,
      "covery": 2698,
      "doctor": 2699,
      "cles": 2700,
      "protein": 2701,
      "sect": 2702,
      "acid": 2703,
      "humans": 2704,
      "ST": 2705,
      "agree": 2706,
      "located": 2707,
      "vation": 2708,
      "deb": 2709,
      "que": 2710,
      "bey": 2711,
      "ively": 2712,
      "tin": 2713,
      "rough": 2714,
      "Ma": 2715,
      "corpor": 2716,
      "believ": 2717,
      "West": 2718,
      "cred": 2719,
      "oud": 2720,
      "haps": 2721,
      "document": 2722,
      "speed": 2723,
      "highly": 2724,
      "center": 2725,
      "military": 2726,
      "virus": 2727,
      "tric": 2728,
      "fight": 2729,
      "worth": 2730,
      "Che": 2731,
      "TH": 2732,
      "Art": 2733,
      "sem": 2734,
      "solar": 2735,
      "Gre": 2736,
      "ishing": 2737,
      "Bar": 2738,
      "Africa": 2739,
      "fit": 2740,
      "construction": 2741,
      "Comp": 2742,
      "serve": 2743,
      "California": 2744,
      "tered": 2745,
      "stream": 2746,
      "Institute": 2747,
      "pair": 2748,
      "ference": 2749,
      "severe": 2750,
      "ets": 2751,
      "stay": 2752,
      "History": 2753,
      "news": 2754,
      "ibr": 2755,
      "directly": 2756,
      "additional": 2757,
      "gets": 2758,
      "tests": 2759,
      "capt": 2760,
      "ote": 2761,
      "altern": 2762,
      "pts": 2763,
      "ON": 2764,
      "June": 2765,
      "âĢĻve": 2766,
      "west": 2767,
      "friend": 2768,
      "Department": 2769,
      "purpose": 2770,
      "trees": 2771,
      "sat": 2772,
      "expected": 2773,
      "behind": 2774,
      "exercise": 2775,
      "cean": 2776,
      "ump": 2777,
      "prior": 2778,
      "Jes": 2779,
      "âĢĻll": 2780,
      "thinking": 2781,
      "win": 2782,
      "lu": 2783,
      "sold": 2784,
      "Because": 2785,
      "appropriate": 2786,
      "towards": 2787,
      "nuc": 2788,
      "akes": 2789,
      "ugh": 2790,
      "bel": 2791,
      "ED": 2792,
      "mom": 2793,
      "families": 2794,
      "anti": 2795,
      "aspect": 2796,
      "African": 2797,
      "ff": 2798,
      "cast": 2799,
      "August": 2800,
      "iques": 2801,
      "gain": 2802,
      "Mus": 2803,
      "April": 2804,
      "fair": 2805,
      "places": 2806,
      "danger": 2807,
      "ume": 2808,
      "quant": 2809,
      "length": 2810,
      "useum": 2811,
      "base": 2812,
      "ceed": 2813,
      "mob": 2814,
      "sustain": 2815,
      "gency": 2816,
      "ulture": 2817,
      "teaching": 2818,
      "People": 2819,
      "Fig": 2820,
      "target": 2821,
      "features": 2822,
      "reve": 2823,
      "proced": 2824,
      "software": 2825,
      "financial": 2826,
      "undred": 2827,
      "Sm": 2828,
      "devices": 2829,
      "iers": 2830,
      "Russ": 2831,
      "ington": 2832,
      "compl": 2833,
      "ows": 2834,
      "father": 2835,
      "veh": 2836,
      "bacteria": 2837,
      "pite": 2838,
      "values": 2839,
      "workers": 2840,
      "video": 2841,
      "broad": 2842,
      "solution": 2843,
      "auto": 2844,
      "it's": 2845,
      "International": 2846,
      "situation": 2847,
      "youâĢĻre": 2848,
      "item": 2849,
      "beginning": 2850,
      "perform": 2851,
      "wel": 2852,
      "lam": 2853,
      "predict": 2854,
      "useful": 2855,
      "augh": 2856,
      "craft": 2857,
      "strict": 2858,
      "July": 2859,
      "rates": 2860,
      "capac": 2861,
      "minutes": 2862,
      "ancy": 2863,
      "forts": 2864,
      "Americans": 2865,
      "table": 2866,
      "contribut": 2867,
      "IT": 2868,
      "uries": 2869,
      "ama": 2870,
      "ico": 2871,
      "ounds": 2872,
      "Dav": 2873,
      "Let": 2874,
      "ously": 2875,
      "Also": 2876,
      "dark": 2877,
      "except": 2878,
      "isms": 2879,
      "transport": 2880,
      "obtain": 2881,
      "whose": 2882,
      "talk": 2883,
      "nel": 2884,
      "cou": 2885,
      "demand": 2886,
      "seems": 2887,
      "largest": 2888,
      "PA": 2889,
      "EN": 2890,
      "Over": 2891,
      "Gen": 2892,
      "note": 2893,
      "harm": 2894,
      "abilities": 2895,
      "hands": 2896,
      "location": 2897,
      "Day": 2898,
      "onom": 2899,
      "Gree": 2900,
      "application": 2901,
      "display": 2902,
      "lost": 2903,
      "capital": 2904,
      "influence": 2905,
      "William": 2906,
      "ift": 2907,
      "Then": 2908,
      "resh": 2909,
      "exact": 2910,
      "mention": 2911,
      "hous": 2912,
      "code": 2913,
      "ret": 2914,
      "cultural": 2915,
      "mole": 2916,
      "requires": 2917,
      "communication": 2918,
      "lier": 2919,
      "rac": 2920,
      "protection": 2921,
      "carry": 2922,
      "eating": 2923,
      "contains": 2924,
      "season": 2925,
      "costs": 2926,
      "cam": 2927,
      "images": 2928,
      "yl": 2929,
      "expo": 2930,
      "private": 2931,
      "cru": 2932,
      "elements": 2933,
      "nearly": 2934,
      "Christian": 2935,
      "north": 2936,
      "ales": 2937,
      "strateg": 2938,
      "adults": 2939,
      "UN": 2940,
      "hon": 2941,
      "Fin": 2942,
      "trade": 2943,
      "mbol": 2944,
      "Mc": 2945,
      "lat": 2946,
      "box": 2947,
      "enjoy": 2948,
      "cool": 2949,
      "typically": 2950,
      "River": 2951,
      "game": 2952,
      "Canada": 2953,
      "projects": 2954,
      "tas": 2955,
      "else": 2956,
      "ologies": 2957,
      "emiss": 2958,
      "Don": 2959,
      "commer": 2960,
      "saw": 2961,
      "hundred": 2962,
      "received": 2963,
      "importance": 2964,
      "inf": 2965,
      "aul": 2966,
      "BC": 2967,
      "tember": 2968,
      "Reg": 2969,
      "Just": 2970,
      "Bi": 2971,
      "izes": 2972,
      "sugar": 2973,
      "hope": 2974,
      "Ob": 2975,
      "weeks": 2976,
      "bert": 2977,
      "Hum": 2978,
      "decision": 2979,
      "ops": 2980,
      "Jesus": 2981,
      "block": 2982,
      "speak": 2983,
      "Techn": 2984,
      "told": 2985,
      "Bu": 2986,
      "leaves": 2987,
      "band": 2988,
      "stage": 2989,
      "cade": 2990,
      "AL": 2991,
      "weak": 2992,
      "President": 2993,
      "sess": 2994,
      "Ber": 2995,
      "south": 2996,
      "summer": 2997,
      "Wash": 2998,
      "testing": 2999,
      "phen": 3000,
      "izations": 3001,
      "described": 3002,
      "agric": 3003,
      "idents": 3004,
      "ito": 3005,
      "teeth": 3006,
      "September": 3007,
      "oral": 3008,
      "za": 3009,
      "ero": 3010,
      "communic": 3011,
      "hydro": 3012,
      "citiz": 3013,
      "hun": 3014,
      "antic": 3015,
      "eyes": 3016,
      "compet": 3017,
      "goal": 3018,
      "brought": 3019,
      "kill": 3020,
      "Associ": 3021,
      "ilosoph": 3022,
      "ancient": 3023,
      "via": 3024,
      "cohol": 3025,
      "diabetes": 3026,
      "vic": 3027,
      "Sw": 3028,
      "'re": 3029,
      "becomes": 3030,
      "immune": 3031,
      "nes": 3032,
      "generation": 3033,
      "entially": 3034,
      "website": 3035,
      "hair": 3036,
      "affected": 3037,
      "inct": 3038,
      "techniques": 3039,
      "vest": 3040,
      "processes": 3041,
      "beaut": 3042,
      "fib": 3043,
      "remains": 3044,
      "Add": 3045,
      "connect": 3046,
      "inde": 3047,
      "creating": 3048,
      "ience": 3049,
      "Rep": 3050,
      "rapid": 3051,
      "Use": 3052,
      "income": 3053,
      "ulate": 3054,
      "tober": 3055,
      "els": 3056,
      "Another": 3057,
      "surround": 3058,
      "rare": 3059,
      "Serv": 3060,
      "install": 3061,
      "applications": 3062,
      "middle": 3063,
      "Sur": 3064,
      "kets": 3065,
      "imag": 3066,
      "January": 3067,
      "confl": 3068,
      "Each": 3069,
      "Ty": 3070,
      "rat": 3071,
      "efforts": 3072,
      "stitution": 3073,
      "phone": 3074,
      "lection": 3075,
      "birds": 3076,
      "dead": 3077,
      "See": 3078,
      "memory": 3079,
      "Trans": 3080,
      "October": 3081,
      "aly": 3082,
      "older": 3083,
      "Ke": 3084,
      "cum": 3085,
      "Once": 3086,
      "winter": 3087,
      "tempor": 3088,
      "sett": 3089,
      "Gover": 3090,
      "basis": 3091,
      "sn": 3092,
      "perfect": 3093,
      "counter": 3094,
      "estic": 3095,
      "inno": 3096,
      "Education": 3097,
      "itude": 3098,
      "Mex": 3099,
      "mouth": 3100,
      "former": 3101,
      "Sun": 3102,
      "ius": 3103,
      "England": 3104,
      "watch": 3105,
      "Chin": 3106,
      "gives": 3107,
      "enh": 3108,
      "user": 3109,
      "egg": 3110,
      "efficient": 3111,
      "cele": 3112,
      "responsible": 3113,
      "Great": 3114,
      "ram": 3115,
      "conserv": 3116,
      "alone": 3117,
      "final": 3118,
      "remember": 3119,
      "device": 3120,
      "Commun": 3121,
      "Prof": 3122,
      "ultural": 3123,
      "named": 3124,
      "San": 3125,
      "iat": 3126,
      "degree": 3127,
      "calcul": 3128,
      "mocr": 3129,
      "Vir": 3130,
      "amm": 3131,
      "digital": 3132,
      "rise": 3133,
      "benefit": 3134,
      "Sim": 3135,
      "property": 3136,
      "AM": 3137,
      "urban": 3138,
      "insul": 3139,
      "mes": 3140,
      "examples": 3141,
      "RE": 3142,
      "teacher": 3143,
      "therapy": 3144,
      "celebr": 3145,
      "exposure": 3146,
      "religious": 3147,
      "consu": 3148,
      "tellig": 3149,
      "Water": 3150,
      "ech": 3151,
      "quar": 3152,
      "Lon": 3153,
      "cold": 3154,
      "asked": 3155,
      "symbol": 3156,
      "shall": 3157,
      "rome": 3158,
      "domin": 3159,
      "drop": 3160,
      "forces": 3161,
      "yourself": 3162,
      "genetic": 3163,
      "reasons": 3164,
      "attempt": 3165,
      "weather": 3166,
      "died": 3167,
      "professional": 3168,
      "Isra": 3169,
      "City": 3170,
      "Black": 3171,
      "trie": 3172,
      "monitor": 3173,
      "piece": 3174,
      "receive": 3175,
      "Lu": 3176,
      "anything": 3177,
      "giving": 3178,
      "suit": 3179,
      "ester": 3180,
      "Red": 3181,
      "lic": 3182,
      "equipment": 3183,
      "portion": 3184,
      "successful": 3185,
      "recently": 3186,
      "cape": 3187,
      "pack": 3188,
      "fill": 3189,
      "economy": 3190,
      "miles": 3191,
      "qual": 3192,
      "everything": 3193,
      "construct": 3194,
      "treated": 3195,
      "cure": 3196,
      "Park": 3197,
      "operation": 3198,
      "DNA": 3199,
      "stone": 3200,
      "beyond": 3201,
      "strength": 3202,
      "scr": 3203,
      "currently": 3204,
      "acqu": 3205,
      "repe": 3206,
      "die": 3207,
      "fix": 3208,
      "Are": 3209,
      "Cur": 3210,
      "door": 3211,
      "choose": 3212,
      "forward": 3213,
      "rot": 3214,
      "Develop": 3215,
      "buy": 3216,
      "spirit": 3217,
      "numer": 3218,
      "don't": 3219,
      "General": 3220,
      "Pat": 3221,
      "cycl": 3222,
      "frame": 3223,
      "changed": 3224,
      "himself": 3225,
      "organization": 3226,
      "practices": 3227,
      "gir": 3228,
      "uate": 3229,
      "consequ": 3230,
      "hosp": 3231,
      "stead": 3232,
      "ament": 3233,
      "firm": 3234,
      "standing": 3235,
      "Dece": 3236,
      "ining": 3237,
      "smaller": 3238,
      "allowed": 3239,
      "everyone": 3240,
      "users": 3241,
      "overall": 3242,
      "Tod": 3243,
      "federal": 3244,
      "discovered": 3245,
      "providing": 3246,
      "burn": 3247,
      "cycle": 3248,
      "graphic": 3249,
      "unch": 3250,
      "laws": 3251,
      "cro": 3252,
      "nothing": 3253,
      "mosph": 3254,
      "coast": 3255,
      "command": 3256,
      "classroom": 3257,
      "rote": 3258,
      "Soci": 3259,
      "models": 3260,
      "balance": 3261,
      "stim": 3262,
      "goes": 3263,
      "occup": 3264,
      "thesis": 3265,
      "Cour": 3266,
      "itic": 3267,
      "opportunity": 3268,
      "atom": 3269,
      "iar": 3270,
      "trying": 3271,
      "followed": 3272,
      "preci": 3273,
      "steps": 3274,
      "completely": 3275,
      "December": 3276,
      "ergy": 3277,
      "conce": 3278,
      "nic": 3279,
      "poly": 3280,
      "visual": 3281,
      "Washington": 3282,
      "London": 3283,
      "measures": 3284,
      "Chinese": 3285,
      "woman": 3286,
      "ils": 3287,
      "sets": 3288,
      "spo": 3289,
      "swe": 3290,
      "Church": 3291,
      "shap": 3292,
      "ficient": 3293,
      "commonly": 3294,
      "System": 3295,
      "resol": 3296,
      "ape": 3297,
      "Arch": 3298,
      "encies": 3299,
      "drugs": 3300,
      "preh": 3301,
      "standards": 3302,
      "identified": 3303,
      "categ": 3304,
      "occurs": 3305,
      "CD": 3306,
      "Journal": 3307,
      "shape": 3308,
      "ught": 3309,
      "Cong": 3310,
      "Every": 3311,
      "Mr": 3312,
      "fruit": 3313,
      "ensity": 3314,
      "gold": 3315,
      "tu": 3316,
      "East": 3317,
      "pregn": 3318,
      "iately": 3319,
      "Bl": 3320,
      "tes": 3321,
      "planet": 3322,
      "tee": 3323,
      "charge": 3324,
      "van": 3325,
      "mas": 3326,
      "constant": 3327,
      "spring": 3328,
      "Nove": 3329,
      "cities": 3330,
      "iction": 3331,
      "xi": 3332,
      "ware": 3333,
      "AP": 3334,
      "Val": 3335,
      "enge": 3336,
      "wrote": 3337,
      "historical": 3338,
      "oxy": 3339,
      "differences": 3340,
      "defined": 3341,
      "effort": 3342,
      "recommend": 3343,
      "Au": 3344,
      "November": 3345,
      "tribute": 3346,
      "purch": 3347,
      "map": 3348,
      "abol": 3349,
      "earlier": 3350,
      "ull": 3351,
      "bound": 3352,
      "collection": 3353,
      "Under": 3354,
      "reedom": 3355,
      "Press": 3356,
      "mut": 3357,
      "doesnâĢĻt": 3358,
      "ost": 3359,
      "aling": 3360,
      "ony": 3361,
      "grade": 3362,
      "interesting": 3363,
      "objects": 3364,
      "comfort": 3365,
      "extra": 3366,
      "apter": 3367,
      "iest": 3368,
      "Sol": 3369,
      "UK": 3370,
      "pp": 3371,
      "glass": 3372,
      "style": 3373,
      "rules": 3374,
      "aks": 3375,
      "acking": 3376,
      "electr": 3377,
      "beg": 3378,
      "zy": 3379,
      "reduced": 3380,
      "County": 3381,
      "cript": 3382,
      "prefer": 3383,
      "acade": 3384,
      "exe": 3385,
      "conduct": 3386,
      "seven": 3387,
      "leave": 3388,
      "neigh": 3389,
      "establish": 3390,
      "erson": 3391,
      "La": 3392,
      "billion": 3393,
      "bran": 3394,
      "poses": 3395,
      "alcohol": 3396,
      "powerful": 3397,
      "Children": 3398,
      "ulated": 3399,
      "mod": 3400,
      "existing": 3401,
      "instru": 3402,
      "moving": 3403,
      "majority": 3404,
      "blue": 3405,
      "continued": 3406,
      "signs": 3407,
      "Their": 3408,
      "file": 3409,
      "baby": 3410,
      "Web": 3411,
      "Â°": 3412,
      "Str": 3413,
      "church": 3414,
      "context": 3415,
      "ored": 3416,
      "factor": 3417,
      "reser": 3418,
      "EM": 3419,
      "illness": 3420,
      "unit": 3421,
      "choice": 3422,
      "compar": 3423,
      "Roman": 3424,
      "dire": 3425,
      "preser": 3426,
      "capacity": 3427,
      "bone": 3428,
      "distance": 3429,
      "antib": 3430,
      "root": 3431,
      "applied": 3432,
      "ios": 3433,
      "virt": 3434,
      "phas": 3435,
      "hydr": 3436,
      "Law": 3437,
      "option": 3438,
      "subst": 3439,
      "administr": 3440,
      "nutri": 3441,
      "hear": 3442,
      "Thus": 3443,
      "cret": 3444,
      "illustr": 3445,
      "perhaps": 3446,
      "friends": 3447,
      "Today": 3448,
      "showed": 3449,
      "deliver": 3450,
      "vant": 3451,
      "assign": 3452,
      "themat": 3453,
      "ibly": 3454,
      "names": 3455,
      "revol": 3456,
      "limit": 3457,
      "cords": 3458,
      "tor": 3459,
      "appears": 3460,
      "female": 3461,
      "presence": 3462,
      "gene": 3463,
      "fresh": 3464,
      "rule": 3465,
      "connected": 3466,
      "nutr": 3467,
      "ximately": 3468,
      "onto": 3469,
      "properties": 3470,
      "patterns": 3471,
      "uk": 3472,
      "iles": 3473,
      "plastic": 3474,
      "increases": 3475,
      "status": 3476,
      "presents": 3477,
      "tou": 3478,
      "aces": 3479,
      "situ": 3480,
      "plies": 3481,
      "vill": 3482,
      "ister": 3483,
      "belief": 3484,
      "gery": 3485,
      "stories": 3486,
      "absor": 3487,
      "relatively": 3488,
      "moment": 3489,
      "pi": 3490,
      "cod": 3491,
      "Program": 3492,
      "topic": 3493,
      "letter": 3494,
      "equal": 3495,
      "Australia": 3496,
      "umb": 3497,
      "orge": 3498,
      "atmosph": 3499,
      "gi": 3500,
      "archite": 3501,
      "kers": 3502,
      "machine": 3503,
      "nur": 3504,
      "bes": 3505,
      "maxim": 3506,
      "philosoph": 3507,
      "IP": 3508,
      "rout": 3509,
      "emissions": 3510,
      "trict": 3511,
      "wal": 3512,
      "Febr": 3513,
      "batter": 3514,
      "Environment": 3515,
      "Hy": 3516,
      "worked": 3517,
      "oring": 3518,
      "kin": 3519,
      "trig": 3520,
      "tissue": 3521,
      "Scot": 3522,
      "Lab": 3523,
      "copy": 3524,
      "functions": 3525,
      "gal": 3526,
      "challenges": 3527,
      "February": 3528,
      "resistance": 3529,
      "mitted": 3530,
      "Up": 3531,
      "iot": 3532,
      "gave": 3533,
      "offers": 3534,
      "components": 3535,
      "transl": 3536,
      "river": 3537,
      "ogle": 3538,
      "ulty": 3539,
      "France": 3540,
      "breath": 3541,
      "significantly": 3542,
      "lt": 3543,
      "educational": 3544,
      "consci": 3545,
      "isl": 3546,
      "orts": 3547,
      "tele": 3548,
      "custom": 3549,
      "staff": 3550,
      "Sch": 3551,
      "modif": 3552,
      "colog": 3553,
      "price": 3554,
      "destroy": 3555,
      "transfer": 3556,
      "wit": 3557,
      "Students": 3558,
      "direction": 3559,
      "James": 3560,
      "observed": 3561,
      "Mal": 3562,
      "dat": 3563,
      "Jewish": 3564,
      "Germany": 3565,
      "Rev": 3566,
      "plications": 3567,
      "creation": 3568,
      "emplo": 3569,
      "iful": 3570,
      "famous": 3571,
      "native": 3572,
      "aters": 3573,
      "huge": 3574,
      "sac": 3575,
      "cand": 3576,
      "collabor": 3577,
      "ams": 3578,
      "liqu": 3579,
      "opportunities": 3580,
      "clinical": 3581,
      "House": 3582,
      "dent": 3583,
      "Israel": 3584,
      "Mid": 3585,
      "running": 3586,
      "Society": 3587,
      "findings": 3588,
      "disorder": 3589,
      "Union": 3590,
      "instance": 3591,
      "wanted": 3592,
      "Pal": 3593,
      "consumption": 3594,
      "Lat": 3595,
      "rock": 3596,
      "Medic": 3597,
      "tooth": 3598,
      "Air": 3599,
      "MS": 3600,
      "Social": 3601,
      "milk": 3602,
      "survey": 3603,
      "rig": 3604,
      "Miss": 3605,
      "figure": 3606,
      "isol": 3607,
      "muscle": 3608,
      "passed": 3609,
      "Govern": 3610,
      "core": 3611,
      "chance": 3612,
      "vas": 3613,
      "ju": 3614,
      "Vol": 3615,
      "reports": 3616,
      "aign": 3617,
      "edia": 3618,
      "expand": 3619,
      "commercial": 3620,
      "xiety": 3621,
      "Mary": 3622,
      "aint": 3623,
      "garden": 3624,
      "thousands": 3625,
      "journal": 3626,
      "medicine": 3627,
      "ries": 3628,
      "details": 3629,
      "foreign": 3630,
      "surpr": 3631,
      "planning": 3632,
      "intellig": 3633,
      "infr": 3634,
      "regions": 3635,
      "iron": 3636,
      "vary": 3637,
      "emphas": 3638,
      "Green": 3639,
      "picture": 3640,
      "hour": 3641,
      "options": 3642,
      "male": 3643,
      "Association": 3644,
      "excess": 3645,
      "plat": 3646,
      "trust": 3647,
      "alg": 3648,
      "wrong": 3649,
      "ica": 3650,
      "optim": 3651,
      "breast": 3652,
      "suggests": 3653,
      "heavy": 3654,
      "changing": 3655,
      "believed": 3656,
      "favor": 3657,
      "explain": 3658,
      "layer": 3659,
      "strate": 3660,
      "Ben": 3661,
      "bio": 3662,
      "Phil": 3663,
      "trieved": 3664,
      "soft": 3665,
      "oxygen": 3666,
      "Thom": 3667,
      "eight": 3668,
      "igen": 3669,
      "nuclear": 3670,
      "apers": 3671,
      "mir": 3672,
      "party": 3673,
      "Therefore": 3674,
      "accoun": 3675,
      "thin": 3676,
      "alle": 3677,
      "walk": 3678,
      "court": 3679,
      "reveal": 3680,
      "ths": 3681,
      "util": 3682,
      "extremely": 3683,
      "organic": 3684,
      "industrial": 3685,
      "eding": 3686,
      "task": 3687,
      "Food": 3688,
      "divid": 3689,
      "kid": 3690,
      "Internet": 3691,
      "instruct": 3692,
      "ternal": 3693,
      "compreh": 3694,
      "Western": 3695,
      "Cam": 3696,
      "structures": 3697,
      "plans": 3698,
      "lived": 3699,
      "ultim": 3700,
      "oration": 3701,
      "element": 3702,
      "owners": 3703,
      "Google": 3704,
      "dol": 3705,
      "apply": 3706,
      "auth": 3707,
      "feature": 3708,
      "wonder": 3709,
      "strategies": 3710,
      "highest": 3711,
      "Lord": 3712,
      "parent": 3713,
      "cin": 3714,
      "items": 3715,
      "OS": 3716,
      "experiences": 3717,
      "requirements": 3718,
      "exhib": 3719,
      "prop": 3720,
      "fear": 3721,
      "eventually": 3722,
      "gender": 3723,
      "prom": 3724,
      "Span": 3725,
      "novel": 3726,
      "approximately": 3727,
      "Hol": 3728,
      "Using": 3729,
      "neuro": 3730,
      "causing": 3731,
      "ctors": 3732,
      "separate": 3733,
      "happen": 3734,
      "Sal": 3735,
      "ifically": 3736,
      "decades": 3737,
      "David": 3738,
      "easier": 3739,
      "notes": 3740,
      "forced": 3741,
      "ato": 3742,
      "libr": 3743,
      "sexual": 3744,
      "PD": 3745,
      "Public": 3746,
      "Rel": 3747,
      "carried": 3748,
      "technologies": 3749,
      "email": 3750,
      "Tur": 3751,
      "Mor": 3752,
      "presented": 3753,
      "Cr": 3754,
      "attach": 3755,
      "organizations": 3756,
      "Av": 3757,
      "thy": 3758,
      "Two": 3759,
      "homes": 3760,
      "enty": 3761,
      "sufficient": 3762,
      "setting": 3763,
      "isation": 3764,
      "perspect": 3765,
      "gent": 3766,
      "kept": 3767,
      "speech": 3768,
      "release": 3769,
      "Sub": 3770,
      "push": 3771,
      "distribution": 3772,
      "save": 3773,
      "office": 3774,
      "fields": 3775,
      "conducted": 3776,
      "Sam": 3777,
      "populations": 3778,
      "combination": 3779,
      "sample": 3780,
      "violence": 3781,
      "radio": 3782,
      "Teach": 3783,
      "Human": 3784,
      "employe": 3785,
      "track": 3786,
      "las": 3787,
      "mountain": 3788,
      "remove": 3789,
      "faith": 3790,
      "Congress": 3791,
      "goals": 3792,
      "immediately": 3793,
      "learned": 3794,
      "gather": 3795,
      "Plan": 3796,
      "valu": 3797,
      "estimated": 3798,
      "tren": 3799,
      "reality": 3800,
      "wealth": 3801,
      "Further": 3802,
      "chain": 3803,
      "introduced": 3804,
      "insect": 3805,
      "EC": 3806,
      "Nat": 3807,
      "experiment": 3808,
      "bodies": 3809,
      "crim": 3810,
      "PR": 3811,
      "PC": 3812,
      "Japanese": 3813,
      "resource": 3814,
      "Profess": 3815,
      "buildings": 3816,
      "square": 3817,
      "geo": 3818,
      "ulum": 3819,
      "advantage": 3820,
      "George": 3821,
      "arrow": 3822,
      "iment": 3823,
      "becoming": 3824,
      "Organ": 3825,
      "freedom": 3826,
      "vul": 3827,
      "metal": 3828,
      "Phys": 3829,
      "cers": 3830,
      "decisions": 3831,
      "frequently": 3832,
      "performed": 3833,
      "radiation": 3834,
      "improv": 3835,
      "opin": 3836,
      "arian": 3837,
      "chronic": 3838,
      "articles": 3839,
      "screen": 3840,
      "electricity": 3841,
      "Mac": 3842,
      "bow": 3843,
      "challenge": 3844,
      "stic": 3845,
      "participants": 3846,
      "western": 3847,
      "bridge": 3848,
      "ille": 3849,
      "assessment": 3850,
      "initi": 3851,
      "actual": 3852,
      "ker": 3853,
      "faces": 3854,
      "upper": 3855,
      "bird": 3856,
      "slight": 3857,
      "stro": 3858,
      "eco": 3859,
      "Common": 3860,
      "mentioned": 3861,
      "restrict": 3862,
      "pow": 3863,
      "urally": 3864,
      "disci": 3865,
      "literature": 3866,
      "Greek": 3867,
      "Tex": 3868,
      "ordin": 3869,
      "volume": 3870,
      "relevant": 3871,
      "statement": 3872,
      "store": 3873,
      "recommended": 3874,
      "hypo": 3875,
      "coll": 3876,
      "Colle": 3877,
      "ocean": 3878,
      "Bel": 3879,
      "Like": 3880,
      "wash": 3881,
      "mostly": 3882,
      "tour": 3883,
      "widely": 3884,
      "Get": 3885,
      "household": 3886,
      "AI": 3887,
      "oles": 3888,
      "shop": 3889,
      "alternative": 3890,
      "independent": 3891,
      "solutions": 3892,
      "president": 3893,
      "lock": 3894,
      "Sou": 3895,
      "ule": 3896,
      "ager": 3897,
      "bottom": 3898,
      "ida": 3899,
      "genes": 3900,
      "nit": 3901,
      "excl": 3902,
      "temperatures": 3903,
      "tum": 3904,
      "ching": 3905,
      "Found": 3906,
      "Fed": 3907,
      "mist": 3908,
      "El": 3909,
      "reducing": 3910,
      "exc": 3911,
      "reference": 3912,
      "drive": 3913,
      "surgery": 3914,
      "aspects": 3915,
      "Retrieved": 3916,
      "rid": 3917,
      "attract": 3918,
      "Paul": 3919,
      "fortun": 3920,
      "released": 3921,
      "Figure": 3922,
      "adult": 3923,
      "spot": 3924,
      "coal": 3925,
      "connection": 3926,
      "omb": 3927,
      "gypt": 3928,
      "dim": 3929,
      "policies": 3930,
      "depression": 3931,
      "About": 3932,
      "film": 3933,
      "relationships": 3934,
      "rob": 3935,
      "vitamin": 3936,
      "osis": 3937,
      "sav": 3938,
      "College": 3939,
      "failure": 3940,
      "DA": 3941,
      "anxiety": 3942,
      "ston": 3943,
      "infections": 3944,
      "partners": 3945,
      "determined": 3946,
      "conflict": 3947,
      "canâĢĻt": 3948,
      "master": 3949,
      "engineering": 3950,
      "Bas": 3951,
      "mort": 3952,
      "properly": 3953,
      "sla": 3954,
      "liver": 3955,
      "turned": 3956,
      "contrast": 3957,
      "bell": 3958,
      "prec": 3959,
      "clearly": 3960,
      "internal": 3961,
      "bud": 3962,
      "flood": 3963,
      "Republic": 3964,
      "numerous": 3965,
      "operations": 3966,
      "moved": 3967,
      "killed": 3968,
      "rew": 3969,
      "race": 3970,
      "college": 3971,
      "jour": 3972,
      "norm": 3973,
      "adapt": 3974,
      "Ca": 3975,
      "starting": 3976,
      "unders": 3977,
      "Both": 3978,
      "Spanish": 3979,
      "grass": 3980,
      "Second": 3981,
      "risks": 3982,
      "schol": 3983,
      "It's": 3984,
      "anyone": 3985,
      "Lin": 3986,
      "disorders": 3987,
      "grees": 3988,
      "Project": 3989,
      "adjust": 3990,
      "seed": 3991,
      "ado": 3992,
      "HIV": 3993,
      "linked": 3994,
      "experts": 3995,
      "CC": 3996,
      "ell": 3997,
      "replace": 3998,
      "minor": 3999,
      "characteristics": 4000,
      "battle": 4001,
      "sand": 4002,
      "appoint": 4003,
      "referred": 4004,
      "views": 4005,
      "Hel": 4006,
      "output": 4007,
      "contract": 4008,
      "allowing": 4009,
      "dynam": 4010,
      "feeling": 4011,
      "games": 4012,
      "thick": 4013,
      "records": 4014,
      "fundam": 4015,
      "tradition": 4016,
      "Council": 4017,
      "ships": 4018,
      "campaign": 4019,
      "descrip": 4020,
      "authors": 4021,
      "assu": 4022,
      "involves": 4023,
      "fee": 4024,
      "processing": 4025,
      "controlled": 4026,
      "ias": 4027,
      "ingu": 4028,
      "territ": 4029,
      "proto": 4030,
      "initial": 4031,
      "exactly": 4032,
      "peace": 4033,
      "oxide": 4034,
      "oph": 4035,
      "keeping": 4036,
      "experienced": 4037,
      "ET": 4038,
      "lung": 4039,
      "toxic": 4040,
      "mand": 4041,
      "prepar": 4042,
      "Class": 4043,
      "explore": 4044,
      "Egypt": 4045,
      "Mexico": 4046,
      "legisl": 4047,
      "Museum": 4048,
      "ror": 4049,
      "edge": 4050,
      "degrees": 4051,
      "Its": 4052,
      "univers": 4053,
      "technique": 4054,
      "Emp": 4055,
      "iff": 4056,
      "plate": 4057,
      "sustainable": 4058,
      "academic": 4059,
      "affic": 4060,
      "resulting": 4061,
      "NASA": 4062,
      "emotional": 4063,
      "aller": 4064,
      "temporary": 4065,
      "encing": 4066,
      "polit": 4067,
      "background": 4068,
      "seeds": 4069,
      "discussion": 4070,
      "dogs": 4071,
      "noted": 4072,
      "ky": 4073,
      "units": 4074,
      "rent": 4075,
      "Test": 4076,
      "happens": 4077,
      "astr": 4078,
      "storage": 4079,
      "White": 4080,
      "Cath": 4081,
      "Mod": 4082,
      "advanced": 4083,
      "incorpor": 4084,
      "roll": 4085,
      "udes": 4086,
      "Def": 4087,
      "promis": 4088,
      "tructure": 4089,
      "lip": 4090,
      "distinct": 4091,
      "classes": 4092,
      "exposed": 4093,
      "erâĢĻs": 4094,
      "expression": 4095,
      "wards": 4096,
      "finding": 4097,
      "fine": 4098,
      "Government": 4099,
      "Hen": 4100,
      "dangerous": 4101,
      "nine": 4102,
      "sell": 4103,
      "truth": 4104,
      "anks": 4105,
      "message": 4106,
      "efficiency": 4107,
      "annual": 4108,
      "removed": 4109,
      "joint": 4110,
      "pes": 4111,
      "Learning": 4112,
      "mm": 4113,
      "inner": 4114,
      "please": 4115,
      "netic": 4116,
      "drome": 4117,
      "uration": 4118,
      "strugg": 4119,
      "circum": 4120,
      "consul": 4121,
      "excell": 4122,
      "injury": 4123,
      "helped": 4124,
      "yellow": 4125,
      "pick": 4126,
      "PS": 4127,
      "beautiful": 4128,
      "vessel": 4129,
      "riculum": 4130,
      "stra": 4131,
      "solid": 4132,
      "lose": 4133,
      "Scient": 4134,
      "physic": 4135,
      "phase": 4136,
      "NO": 4137,
      "pieces": 4138,
      "prepared": 4139,
      "Data": 4140,
      "Elect": 4141,
      "victim": 4142,
      "citizens": 4143,
      "Bra": 4144,
      "foc": 4145,
      "depending": 4146,
      "rang": 4147,
      "divers": 4148,
      "Rich": 4149,
      "km": 4150,
      "ov": 4151,
      "ula": 4152,
      "meat": 4153,
      "Central": 4154,
      "liber": 4155,
      "usual": 4156,
      "invent": 4157,
      "Make": 4158,
      "thes": 4159,
      "Life": 4160,
      "adequ": 4161,
      "ologist": 4162,
      "thatâĢĻs": 4163,
      "principles": 4164,
      "concerns": 4165,
      "awareness": 4166,
      "interpret": 4167,
      "vaccine": 4168,
      "hur": 4169,
      "official": 4170,
      "effectively": 4171,
      "Treat": 4172,
      "iling": 4173,
      "ga": 4174,
      "regarding": 4175,
      "mathemat": 4176,
      "izon": 4177,
      "Island": 4178,
      "multi": 4179,
      "profession": 4180,
      "ologists": 4181,
      "Pho": 4182,
      "ilit": 4183,
      "formal": 4184,
      "pollution": 4185,
      "Development": 4186,
      "Sup": 4187,
      "heard": 4188,
      "interested": 4189,
      "Book": 4190,
      "definition": 4191,
      "uters": 4192,
      "mobile": 4193,
      "Ir": 4194,
      "occas": 4195,
      "detect": 4196,
      "helping": 4197,
      "east": 4198,
      "expert": 4199,
      "chemicals": 4200,
      "manage": 4201,
      "involve": 4202,
      "Fore": 4203,
      "nav": 4204,
      "Old": 4205,
      "discover": 4206,
      "Bud": 4207,
      "elimin": 4208,
      "appeared": 4209,
      "previously": 4210,
      "lease": 4211,
      "conscious": 4212,
      "eties": 4213,
      "uck": 4214,
      "Fol": 4215,
      "hit": 4216,
      "Texas": 4217,
      "iders": 4218,
      "leads": 4219,
      "volun": 4220,
      "ads": 4221,
      "motor": 4222,
      "scen": 4223,
      "meant": 4224,
      "conservation": 4225,
      "intended": 4226,
      "Who": 4227,
      "amounts": 4228,
      "Dan": 4229,
      "meeting": 4230,
      "matic": 4231,
      "reaction": 4232,
      "signal": 4233,
      "Prote": 4234,
      "served": 4235,
      "Any": 4236,
      "pred": 4237,
      "religion": 4238,
      "thetic": 4239,
      "riage": 4240,
      "Mag": 4241,
      "da": 4242,
      "math": 4243,
      "bank": 4244,
      "Post": 4245,
      "grant": 4246,
      "mainly": 4247,
      "promote": 4248,
      "EL": 4249,
      "professor": 4250,
      "isnâĢĻt": 4251,
      "Through": 4252,
      "spent": 4253,
      "improved": 4254,
      "decided": 4255,
      "practical": 4256,
      "Mem": 4257,
      "revolution": 4258,
      "Em": 4259,
      "angle": 4260,
      "hearing": 4261,
      "possess": 4262,
      "Ver": 4263,
      "belong": 4264,
      "diagnosis": 4265,
      "pun": 4266,
      "jun": 4267,
      "credit": 4268,
      "Bay": 4269,
      "god": 4270,
      "wear": 4271,
      "mel": 4272,
      "island": 4273,
      "wet": 4274,
      "expensive": 4275,
      "Asia": 4276,
      "haz": 4277,
      "frequency": 4278,
      "Service": 4279,
      "Direct": 4280,
      "input": 4281,
      "southern": 4282,
      "Pac": 4283,
      "Where": 4284,
      "looks": 4285,
      "familiar": 4286,
      "tributed": 4287,
      "Port": 4288,
      "focused": 4289,
      "concern": 4290,
      "supported": 4291,
      "drinking": 4292,
      "orial": 4293,
      "iance": 4294,
      "Ant": 4295,
      "sector": 4296,
      "cription": 4297,
      "obvious": 4298,
      "vegetables": 4299,
      "strategy": 4300,
      "completed": 4301,
      "closed": 4302,
      "Cathol": 4303,
      "describe": 4304,
      "Court": 4305,
      "northern": 4306,
      "pover": 4307,
      "pages": 4308,
      "sort": 4309,
      "song": 4310,
      "sky": 4311,
      "facts": 4312,
      "Ter": 4313,
      "proteins": 4314,
      "Cap": 4315,
      "iger": 4316,
      "hospital": 4317,
      "yield": 4318,
      "cris": 4319,
      "Que": 4320,
      "Energy": 4321,
      "Glo": 4322,
      "Thomas": 4323,
      "ya": 4324,
      "whom": 4325,
      "News": 4326,
      "Net": 4327,
      "Bur": 4328,
      "grav": 4329,
      "asp": 4330,
      "looked": 4331,
      "bright": 4332,
      "ctic": 4333,
      "motiv": 4334,
      "shr": 4335,
      "defic": 4336,
      "Islam": 4337,
      "Cy": 4338,
      "Mart": 4339,
      "gun": 4340,
      "notice": 4341,
      "concepts": 4342,
      "rum": 4343,
      "zz": 4344,
      "atell": 4345,
      "renew": 4346,
      "IâĢĻ": 4347,
      "Ken": 4348,
      "fly": 4349,
      "shared": 4350,
      "tested": 4351,
      "Off": 4352,
      "atmosphere": 4353,
      "liquid": 4354,
      "vital": 4355,
      "aches": 4356,
      "Contro": 4357,
      "conver": 4358,
      "clim": 4359,
      "Cons": 4360,
      "sin": 4361,
      "fing": 4362,
      "filled": 4363,
      "waters": 4364,
      "neur": 4365,
      "Medical": 4366,
      "wing": 4367,
      "station": 4368,
      "Mil": 4369,
      "Well": 4370,
      "traffic": 4371,
      "perman": 4372,
      "Out": 4373,
      "saying": 4374,
      "Jews": 4375,
      "Year": 4376,
      "Jer": 4377,
      "hyper": 4378,
      "spend": 4379,
      "Lou": 4380,
      "accurate": 4381,
      "farmers": 4382,
      "agon": 4383,
      "click": 4384,
      "Civil": 4385,
      "recorded": 4386,
      "Dise": 4387,
      "prison": 4388,
      "aph": 4389,
      "reduction": 4390,
      "circu": 4391,
      "aughter": 4392,
      "oth": 4393,
      "extensive": 4394,
      "encourage": 4395,
      "ii": 4396,
      "manner": 4397,
      "institutions": 4398,
      "Virgin": 4399,
      "Sha": 4400,
      "mph": 4401,
      "compe": 4402,
      "flex": 4403,
      "ano": 4404,
      "Before": 4405,
      "crete": 4406,
      "icial": 4407,
      "datab": 4408,
      "opy": 4409,
      "shar": 4410,
      "topics": 4411,
      "https": 4412,
      "Women": 4413,
      "eggs": 4414,
      "andom": 4415,
      "ogen": 4416,
      "hop": 4417,
      "train": 4418,
      "icy": 4419,
      "height": 4420,
      "ald": 4421,
      "satis": 4422,
      "Technology": 4423,
      "CH": 4424,
      "py": 4425,
      "arent": 4426,
      "samples": 4427,
      "Mat": 4428,
      "SS": 4429,
      "flowers": 4430,
      "vulner": 4431,
      "zone": 4432,
      "ander": 4433,
      "grown": 4434,
      "continues": 4435,
      "iced": 4436,
      "iring": 4437,
      "attacks": 4438,
      "ern": 4439,
      "Mass": 4440,
      "ideal": 4441,
      "smart": 4442,
      "adop": 4443,
      "reached": 4444,
      "I'": 4445,
      "Instead": 4446,
      "treatments": 4447,
      "salt": 4448,
      "Libr": 4449,
      "technical": 4450,
      "contribute": 4451,
      "taught": 4452,
      "iveness": 4453,
      "metabol": 4454,
      "procedure": 4455,
      "ounced": 4456,
      "operating": 4457,
      "situations": 4458,
      "cert": 4459,
      "oma": 4460,
      "posite": 4461,
      "settle": 4462,
      "explained": 4463,
      "cide": 4464,
      "rail": 4465,
      "arms": 4466,
      "apping": 4467,
      "combined": 4468,
      "nutrition": 4469,
      "electrical": 4470,
      "indicate": 4471,
      "Space": 4472,
      "cere": 4473,
      "san": 4474,
      "ara": 4475,
      "purposes": 4476,
      "vehicle": 4477,
      "ague": 4478,
      "umn": 4479,
      "Those": 4480,
      "begins": 4481,
      "crucial": 4482,
      "trial": 4483,
      "existence": 4484,
      "digest": 4485,
      "gs": 4486,
      "sched": 4487,
      "drink": 4488,
      "sides": 4489,
      "Britain": 4490,
      "specifically": 4491,
      "Know": 4492,
      "democr": 4493,
      "advance": 4494,
      "iverse": 4495,
      "tasks": 4496,
      "double": 4497,
      "particles": 4498,
      "primarily": 4499,
      "Such": 4500,
      "largely": 4501,
      "hi": 4502,
      "justice": 4503,
      "languages": 4504,
      "mode": 4505,
      "execut": 4506,
      "infected": 4507,
      "gment": 4508,
      "lights": 4509,
      "morning": 4510,
      "Publ": 4511,
      "embr": 4512,
      "pup": 4513,
      "proposed": 4514,
      "nutrients": 4515,
      "jobs": 4516,
      "straight": 4517,
      "occurred": 4518,
      "foss": 4519,
      "hes": 4520,
      "astructure": 4521,
      "Histor": 4522,
      "identity": 4523,
      "Wil": 4524,
      "Kore": 4525,
      "showing": 4526,
      "consequences": 4527,
      "brother": 4528,
      "Flor": 4529,
      "dated": 4530,
      "containing": 4531,
      "fal": 4532,
      "roots": 4533,
      "authority": 4534,
      "wife": 4535,
      "greg": 4536,
      "links": 4537,
      "bing": 4538,
      "finally": 4539,
      "subjects": 4540,
      "itors": 4541,
      "profit": 4542,
      "rupt": 4543,
      "grand": 4544,
      "vin": 4545,
      "trou": 4546,
      "faster": 4547,
      "Ve": 4548,
      "istan": 4549,
      "brief": 4550,
      "ny": 4551,
      "collected": 4552,
      "centuries": 4553,
      "muscles": 4554,
      "scan": 4555,
      "LE": 4556,
      "Information": 4557,
      "lesson": 4558,
      "career": 4559,
      "offered": 4560,
      "impacts": 4561,
      "Smith": 4562,
      "TO": 4563,
      "motion": 4564,
      "convers": 4565,
      "measured": 4566,
      "Robert": 4567,
      "pil": 4568,
      "horse": 4569,
      "Latin": 4570,
      "extent": 4571,
      "sounds": 4572,
      "letters": 4573,
      "discipl": 4574,
      "fif": 4575,
      "kinds": 4576,
      "producing": 4577,
      "feeding": 4578,
      "osph": 4579,
      "Arab": 4580,
      "advice": 4581,
      "certainly": 4582,
      "Ef": 4583,
      "pin": 4584,
      "nations": 4585,
      "spl": 4586,
      "Fam": 4587,
      "divided": 4588,
      "typical": 4589,
      "remained": 4590,
      "ammation": 4591,
      "houses": 4592,
      "moral": 4593,
      "playing": 4594,
      "Di": 4595,
      "Pacific": 4596,
      "acters": 4597,
      "phenomen": 4598,
      "send": 4599,
      "Grou": 4600,
      "emergency": 4601,
      "seek": 4602,
      "Medicine": 4603,
      "vast": 4604,
      "excellent": 4605,
      "army": 4606,
      "introduction": 4607,
      "park": 4608,
      "protected": 4609,
      "driving": 4610,
      "berg": 4611,
      "UR": 4612,
      "Rem": 4613,
      "paid": 4614,
      "Commission": 4615,
      "despite": 4616,
      "felt": 4617,
      "poverty": 4618,
      "capable": 4619,
      "raised": 4620,
      "surrounding": 4621,
      "Good": 4622,
      "convent": 4623,
      "neut": 4624,
      "Lake": 4625,
      "turning": 4626,
      "Studies": 4627,
      "Exam": 4628,
      "Sea": 4629,
      "maximum": 4630,
      "Stand": 4631,
      "Professor": 4632,
      "responsibility": 4633,
      "moist": 4634,
      "cook": 4635,
      "comput": 4636,
      "igenous": 4637,
      "cars": 4638,
      "domestic": 4639,
      "cis": 4640,
      "crops": 4641,
      "immigr": 4642,
      "chief": 4643,
      "astern": 4644,
      "aran": 4645,
      "rural": 4646,
      "Fort": 4647,
      "cognitive": 4648,
      "didnâĢĻt": 4649,
      "lets": 4650,
      "affects": 4651,
      "inher": 4652,
      "voice": 4653,
      "employment": 4654,
      "Power": 4655,
      "fruits": 4656,
      "Engine": 4657,
      "cm": 4658,
      "Despite": 4659,
      "fluid": 4660,
      "external": 4661,
      "leader": 4662,
      "Sum": 4663,
      "adding": 4664,
      "secure": 4665,
      "Muslim": 4666,
      "marine": 4667,
      "wire": 4668,
      "ception": 4669,
      "Yet": 4670,
      "dependent": 4671,
      "minimum": 4672,
      "ek": 4673,
      "tun": 4674,
      "brown": 4675,
      "ifying": 4676,
      "format": 4677,
      "periods": 4678,
      "biological": 4679,
      "goods": 4680,
      "crop": 4681,
      "flat": 4682,
      "played": 4683,
      "perspective": 4684,
      "inches": 4685,
      "Del": 4686,
      "ags": 4687,
      "paint": 4688,
      "CE": 4689,
      "fro": 4690,
      "Vis": 4691,
      "pon": 4692,
      "girls": 4693,
      "fundamental": 4694,
      "Cle": 4695,
      "refers": 4696,
      "zo": 4697,
      "speaking": 4698,
      "tips": 4699,
      "phr": 4700,
      "ificial": 4701,
      "component": 4702,
      "ican": 4703,
      "agricultural": 4704,
      "tension": 4705,
      "Gl": 4706,
      "investment": 4707,
      "dram": 4708,
      "stock": 4709,
      "Ã¡": 4710,
      "helpful": 4711,
      "igation": 4712,
      "surance": 4713,
      "monitoring": 4714,
      "Army": 4715,
      "iday": 4716,
      "pressed": 4717,
      "pray": 4718,
      "interests": 4719,
      "celer": 4720,
      "medium": 4721,
      "valid": 4722,
      "Find": 4723,
      "wish": 4724,
      "potentially": 4725,
      "explains": 4726,
      "title": 4727,
      "greatest": 4728,
      "uded": 4729,
      "wave": 4730,
      "catch": 4731,
      "comment": 4732,
      "sensitive": 4733,
      "detailed": 4734,
      "suggested": 4735,
      "facilities": 4736,
      "characters": 4737,
      "dial": 4738,
      "substant": 4739,
      "Mer": 4740,
      "internet": 4741,
      "creative": 4742,
      "medications": 4743,
      "Tem": 4744,
      "increasingly": 4745,
      "Wind": 4746,
      "Bible": 4747,
      "tical": 4748,
      "stars": 4749,
      "va": 4750,
      "crisis": 4751,
      "studied": 4752,
      "otherwise": 4753,
      "rogen": 4754,
      "Stre": 4755,
      "voc": 4756,
      "invas": 4757,
      "wid": 4758,
      "depends": 4759,
      "burg": 4760,
      "dollar": 4761,
      "listed": 4762,
      "appearance": 4763,
      "Sen": 4764,
      "slightly": 4765,
      "solute": 4766,
      "organisms": 4767,
      "Charles": 4768,
      "enem": 4769,
      "depth": 4770,
      "CS": 4771,
      "crow": 4772,
      "habitat": 4773,
      "sight": 4774,
      "Ze": 4775,
      "residents": 4776,
      "youth": 4777,
      "secondary": 4778,
      "feelings": 4779,
      "icated": 4780,
      "Note": 4781,
      "prices": 4782,
      "curriculum": 4783,
      "Pan": 4784,
      "enses": 4785,
      "director": 4786,
      "Keep": 4787,
      "oted": 4788,
      "walls": 4789,
      "Foundation": 4790,
      "calls": 4791,
      "Bre": 4792,
      "Have": 4793,
      "Micro": 4794,
      "Free": 4795,
      "astro": 4796,
      "fare": 4797,
      "lie": 4798,
      "explan": 4799,
      "doub": 4800,
      "forming": 4801,
      "harvest": 4802,
      "cope": 4803,
      "stable": 4804,
      "rou": 4805,
      "solve": 4806,
      "Bir": 4807,
      "mere": 4808,
      "positions": 4809,
      "tery": 4810,
      "mac": 4811,
      "tons": 4812,
      "iled": 4813,
      "governments": 4814,
      "Bet": 4815,
      "cel": 4816,
      "dut": 4817,
      "instruction": 4818,
      "narr": 4819,
      "intelligence": 4820,
      "thoughts": 4821,
      "esity": 4822,
      "sion": 4823,
      "stret": 4824,
      "Middle": 4825,
      "Home": 4826,
      "neighbor": 4827,
      "Jud": 4828,
      "sembl": 4829,
      "Henry": 4830,
      "cium": 4831,
      "Environmental": 4832,
      "Russian": 4833,
      "apart": 4834,
      "iber": 4835,
      "outcomes": 4836,
      "THE": 4837,
      "infrastructure": 4838,
      "fortunately": 4839,
      "subsequ": 4840,
      "marks": 4841,
      "Photo": 4842,
      "umin": 4843,
      "inflammation": 4844,
      "behaviour": 4845,
      "apparent": 4846,
      "Ox": 4847,
      "hundreds": 4848,
      "exchange": 4849,
      "generate": 4850,
      "recognized": 4851,
      "odes": 4852,
      "react": 4853,
      "mi": 4854,
      "iel": 4855,
      "visible": 4856,
      "Jose": 4857,
      "claims": 4858,
      "concentration": 4859,
      "uff": 4860,
      "floor": 4861,
      "Roy": 4862,
      "Alex": 4863,
      "pha": 4864,
      "regularly": 4865,
      "files": 4866,
      "bear": 4867,
      "Met": 4868,
      "Long": 4869,
      "azing": 4870,
      "concerned": 4871,
      "snow": 4872,
      "consists": 4873,
      "Catholic": 4874,
      "Econom": 4875,
      "zing": 4876,
      "pig": 4877,
      "random": 4878,
      "destru": 4879,
      "Please": 4880,
      "stated": 4881,
      "productive": 4882,
      "yn": 4883,
      "Bal": 4884,
      "roid": 4885,
      "raise": 4886,
      "prepare": 4887,
      "fold": 4888,
      "obtained": 4889,
      "weap": 4890,
      "police": 4891,
      "assum": 4892,
      "approaches": 4893,
      "naturally": 4894,
      "selected": 4895,
      "Atl": 4896,
      "otic": 4897,
      "deaths": 4898,
      "III": 4899,
      "regul": 4900,
      "marked": 4901,
      "ensus": 4902,
      "TS": 4903,
      "spiritual": 4904,
      "employees": 4905,
      "advis": 4906,
      "orient": 4907,
      "Only": 4908,
      "index": 4909,
      "happened": 4910,
      "Rad": 4911,
      "secret": 4912,
      "shel": 4913,
      "cof": 4914,
      "ecolog": 4915,
      "funding": 4916,
      "Management": 4917,
      "Writ": 4918,
      "Nav": 4919,
      "recycl": 4920,
      "doors": 4921,
      "leaf": 4922,
      "Carol": 4923,
      "HO": 4924,
      "usive": 4925,
      "normally": 4926,
      "pel": 4927,
      "frag": 4928,
      "mistry": 4929,
      "request": 4930,
      "Take": 4931,
      "edition": 4932,
      "valuable": 4933,
      "oting": 4934,
      "pregnancy": 4935,
      "gro": 4936,
      "generated": 4937,
      "ancing": 4938,
      "OF": 4939,
      "constit": 4940,
      "officials": 4941,
      "alter": 4942,
      "businesses": 4943,
      "colors": 4944,
      "Learn": 4945,
      "IM": 4946,
      "computers": 4947,
      "Div": 4948,
      "ba": 4949,
      "happy": 4950,
      "ody": 4951,
      "phy": 4952,
      "tact": 4953,
      "dental": 4954,
      "Main": 4955,
      "ka": 4956,
      "abuse": 4957,
      "Cre": 4958,
      "Russia": 4959,
      "esterol": 4960,
      "sick": 4961,
      "latest": 4962,
      "closely": 4963,
      "represents": 4964,
      "innov": 4965,
      "discovery": 4966,
      "agreement": 4967,
      "apped": 4968,
      "Care": 4969,
      "satell": 4970,
      "BN": 4971,
      "Nature": 4972,
      "fle": 4973,
      "suitable": 4974,
      "principle": 4975,
      "persons": 4976,
      "suffering": 4977,
      "consistent": 4978,
      "Library": 4979,
      "tood": 4980,
      "returned": 4981,
      "regis": 4982,
      "nest": 4983,
      "enhance": 4984,
      "itage": 4985,
      "forests": 4986,
      "follows": 4987,
      "server": 4988,
      "lifest": 4989,
      "Acade": 4990,
      "exts": 4991,
      "rapidly": 4992,
      "courses": 4993,
      "orm": 4994,
      "tried": 4995,
      "adequate": 4996,
      "cules": 4997,
      "atever": 4998,
      "syndrome": 4999,
      "onic": 5000,
      "pa": 5001,
      "sty": 5002,
      "strain": 5003,
      "aer": 5004,
      "antibiot": 5005,
      "crib": 5006,
      "Table": 5007,
      "diversity": 5008,
      "'ll": 5009,
      "Ham": 5010,
      "toler": 5011,
      "leaving": 5012,
      "insp": 5013,
      "Guide": 5014,
      "Mos": 5015,
      "Florida": 5016,
      "Sat": 5017,
      "Gold": 5018,
      "IâĢĻm": 5019,
      "decrease": 5020,
      "understood": 5021,
      "Budd": 5022,
      "library": 5023,
      "vehicles": 5024,
      "Oh": 5025,
      "lessons": 5026,
      "tage": 5027,
      "Last": 5028,
      "moon": 5029,
      "touch": 5030,
      "Ess": 5031,
      "Louis": 5032,
      "IR": 5033,
      "tenance": 5034,
      "fab": 5035,
      "logical": 5036,
      "reci": 5037,
      "recovery": 5038,
      "brush": 5039,
      "icts": 5040,
      "theyâĢĻre": 5041,
      "density": 5042,
      "comprehensive": 5043,
      "readers": 5044,
      "discussed": 5045,
      "usal": 5046,
      "CA": 5047,
      "procedures": 5048,
      "consult": 5049,
      "barri": 5050,
      "bones": 5051,
      "ols": 5052,
      "flight": 5053,
      "prevention": 5054,
      "accompl": 5055,
      "couple": 5056,
      "aur": 5057,
      "healthcare": 5058,
      "sole": 5059,
      "soldiers": 5060,
      "Design": 5061,
      "Work": 5062,
      "Tor": 5063,
      "Psych": 5064,
      "parties": 5065,
      "fertil": 5066,
      "massive": 5067,
      "uco": 5068,
      "clar": 5069,
      "fur": 5070,
      "Study": 5071,
      "vascular": 5072,
      "correspond": 5073,
      "derived": 5074,
      "Though": 5075,
      "cav": 5076,
      "Company": 5077,
      "bour": 5078,
      "icip": 5079,
      "advoc": 5080,
      "talking": 5081,
      "shot": 5082,
      "opened": 5083,
      "llect": 5084,
      "Early": 5085,
      "Fl": 5086,
      "shell": 5087,
      "ingred": 5088,
      "Global": 5089,
      "border": 5090,
      "argument": 5091,
      "dates": 5092,
      "USA": 5093,
      "dre": 5094,
      "diverse": 5095,
      "movements": 5096,
      "ION": 5097,
      "Land": 5098,
      "knew": 5099,
      "extr": 5100,
      "orith": 5101,
      "Follow": 5102,
      "Mark": 5103,
      "warming": 5104,
      "mur": 5105,
      "obl": 5106,
      "guard": 5107,
      "millions": 5108,
      "recognize": 5109,
      "battery": 5110,
      "Federal": 5111,
      "photograph": 5112,
      "Canadian": 5113,
      "Clim": 5114,
      "gone": 5115,
      "Bro": 5116,
      "sper": 5117,
      "Virginia": 5118,
      "shaped": 5119,
      "stick": 5120,
      "ville": 5121,
      "Review": 5122,
      "manufactur": 5123,
      "remot": 5124,
      "selection": 5125,
      "VID": 5126,
      "PM": 5127,
      "error": 5128,
      "precise": 5129,
      "Int": 5130,
      "Time": 5131,
      "aircraft": 5132,
      "plicated": 5133,
      "IL": 5134,
      "stimul": 5135,
      "laun": 5136,
      "Control": 5137,
      "enzy": 5138,
      "chapter": 5139,
      "Finally": 5140,
      "à¤": 5141,
      "ota": 5142,
      "oty": 5143,
      "proof": 5144,
      "experiments": 5145,
      "plas": 5146,
      "sures": 5147,
      "organized": 5148,
      "engage": 5149,
      "electro": 5150,
      "intest": 5151,
      "Agr": 5152,
      "Ann": 5153,
      "medication": 5154,
      "claimed": 5155,
      "hero": 5156,
      "narrow": 5157,
      "doi": 5158,
      "landscape": 5159,
      "Natural": 5160,
      "Mill": 5161,
      "amed": 5162,
      "agers": 5163,
      "supplement": 5164,
      "inations": 5165,
      "harmful": 5166,
      "enable": 5167,
      "leadership": 5168,
      "seeing": 5169,
      "fiber": 5170,
      "ache": 5171,
      "jection": 5172,
      "Group": 5173,
      "ered": 5174,
      "possibly": 5175,
      "regional": 5176,
      "locations": 5177,
      "manufacturing": 5178,
      "dden": 5179,
      "circumst": 5180,
      "Mont": 5181,
      "facilit": 5182,
      "Sever": 5183,
      "survival": 5184,
      "distingu": 5185,
      "networks": 5186,
      "pictures": 5187,
      "hael": 5188,
      "vironments": 5189,
      "agriculture": 5190,
      "revealed": 5191,
      "ture": 5192,
      "intake": 5193,
      "ules": 5194,
      "plays": 5195,
      "ameter": 5196,
      "marriage": 5197,
      "Francis": 5198,
      "brid": 5199,
      "absolute": 5200,
      "Office": 5201,
      "theless": 5202,
      "substance": 5203,
      "teenth": 5204,
      "AB": 5205,
      "aj": 5206,
      "composition": 5207,
      "willing": 5208,
      "gall": 5209,
      "advantages": 5210,
      "Er": 5211,
      "district": 5212,
      "aqu": 5213,
      "ibilities": 5214,
      "Men": 5215,
      "cket": 5216,
      "poem": 5217,
      "documents": 5218,
      "plus": 5219,
      "depos": 5220,
      "Eli": 5221,
      "Inde": 5222,
      "stages": 5223,
      "download": 5224,
      "worldwide": 5225,
      "zer": 5226,
      "wildlife": 5227,
      "cking": 5228,
      "ray": 5229,
      "remote": 5230,
      "cholesterol": 5231,
      "afford": 5232,
      "pit": 5233,
      "CT": 5234,
      "CR": 5235,
      "routine": 5236,
      "mov": 5237,
      "athy": 5238,
      "storm": 5239,
      "Â·": 5240,
      "corn": 5241,
      "impossible": 5242,
      "unless": 5243,
      "Äģ": 5244,
      "childâĢĻs": 5245,
      "switch": 5246,
      "worldâĢĻs": 5247,
      "MD": 5248,
      "viet": 5249,
      "Tra": 5250,
      "mbly": 5251,
      "originally": 5252,
      "transmission": 5253,
      "Ill": 5254,
      "kil": 5255,
      "ethnic": 5256,
      "lies": 5257,
      "confir": 5258,
      "electronic": 5259,
      "doctors": 5260,
      "ThatâĢĻs": 5261,
      "nan": 5262,
      "conventional": 5263,
      "sweet": 5264,
      "opinion": 5265,
      "pleas": 5266,
      "fas": 5267,
      "Labor": 5268,
      "labe": 5269,
      "pure": 5270,
      "improving": 5271,
      "describes": 5272,
      "Dif": 5273,
      "skill": 5274,
      "steel": 5275,
      "View": 5276,
      "iated": 5277,
      "pretty": 5278,
      "abund": 5279,
      "agues": 5280,
      "journey": 5281,
      "repair": 5282,
      "ole": 5283,
      "sudden": 5284,
      "ails": 5285,
      "entirely": 5286,
      "figures": 5287,
      "produces": 5288,
      "Num": 5289,
      "tea": 5290,
      "possibility": 5291,
      "Fre": 5292,
      "aste": 5293,
      "village": 5294,
      "fighting": 5295,
      "sembly": 5296,
      "decline": 5297,
      "flav": 5298,
      "anc": 5299,
      "starts": 5300,
      "hole": 5301,
      "opening": 5302,
      "ari": 5303,
      "achieved": 5304,
      "gum": 5305,
      "clust": 5306,
      "loved": 5307,
      "ictor": 5308,
      "rein": 5309,
      "appreci": 5310,
      "ratio": 5311,
      "ropical": 5312,
      "tock": 5313,
      "itionally": 5314,
      "sharing": 5315,
      "duct": 5316,
      "plane": 5317,
      "accepted": 5318,
      "equival": 5319,
      "administration": 5320,
      "Sometimes": 5321,
      "managed": 5322,
      "scope": 5323,
      "evalu": 5324,
      "ÃŃ": 5325,
      "childhood": 5326,
      "blog": 5327,
      "Paris": 5328,
      "ING": 5329,
      "Rights": 5330,
      "imal": 5331,
      "ola": 5332,
      "cultiv": 5333,
      "agencies": 5334,
      "youâĢĻll": 5335,
      "twice": 5336,
      "you're": 5337,
      "repeated": 5338,
      "amb": 5339,
      "worse": 5340,
      "Spr": 5341,
      "boost": 5342,
      "creates": 5343,
      "expressed": 5344,
      "MR": 5345,
      "candid": 5346,
      "erals": 5347,
      "eper": 5348,
      "cloud": 5349,
      "sequence": 5350,
      "environments": 5351,
      "algorith": 5352,
      "foundation": 5353,
      "traum": 5354,
      "trigger": 5355,
      "ĊĠ": 5356,
      "urs": 5357,
      "HD": 5358,
      "choices": 5359,
      "respir": 5360,
      "professionals": 5361,
      "intervention": 5362,
      "waves": 5363,
      "thro": 5364,
      "aggress": 5365,
      "Among": 5366,
      "molecules": 5367,
      "guidelines": 5368,
      "broken": 5369,
      "Report": 5370,
      "struggle": 5371,
      "sports": 5372,
      "extended": 5373,
      "window": 5374,
      "colour": 5375,
      "hus": 5376,
      "Hor": 5377,
      "confidence": 5378,
      "papers": 5379,
      "historic": 5380,
      "resolution": 5381,
      "CP": 5382,
      "ordinary": 5383,
      "Australian": 5384,
      "answers": 5385,
      "dominant": 5386,
      "lots": 5387,
      "plication": 5388,
      "successfully": 5389,
      "tells": 5390,
      "Wild": 5391,
      "plain": 5392,
      "compare": 5393,
      "diagnosed": 5394,
      "adopted": 5395,
      "Disease": 5396,
      "magn": 5397,
      "tiny": 5398,
      "acceler": 5399,
      "database": 5400,
      "museum": 5401,
      "Constitution": 5402,
      "founded": 5403,
      "zero": 5404,
      "Peter": 5405,
      "Clin": 5406,
      "latter": 5407,
      "stored": 5408,
      "bac": 5409,
      "Stat": 5410,
      "contamin": 5411,
      "Soviet": 5412,
      "represented": 5413,
      "trained": 5414,
      "Southern": 5415,
      "cutting": 5416,
      "remaining": 5417,
      "beneficial": 5418,
      "ISBN": 5419,
      "coffee": 5420,
      "pron": 5421,
      "meal": 5422,
      "comfortable": 5423,
      "thereâĢĻs": 5424,
      "mature": 5425,
      "unknown": 5426,
      "fixed": 5427,
      "constitution": 5428,
      "idden": 5429,
      "bin": 5430,
      "ault": 5431,
      "viruses": 5432,
      "COVID": 5433,
      "Pers": 5434,
      "injuries": 5435,
      "calcium": 5436,
      "MA": 5437,
      "decade": 5438,
      "mers": 5439,
      "proportion": 5440,
      "relations": 5441,
      "dose": 5442,
      "smoking": 5443,
      "intr": 5444,
      "ission": 5445,
      "ĠĠ": 5446,
      "Gal": 5447,
      "Vi": 5448,
      "raw": 5449,
      "fossil": 5450,
      "retain": 5451,
      "maintenance": 5452,
      "circuit": 5453,
      "Access": 5454,
      "culation": 5455,
      "Does": 5456,
      "custo": 5457,
      "opposite": 5458,
      "lifestyle": 5459,
      "assistance": 5460,
      "intellect": 5461,
      "Whe": 5462,
      "electron": 5463,
      "volunte": 5464,
      "Mad": 5465,
      "handle": 5466,
      "ava": 5467,
      "survive": 5468,
      "married": 5469,
      "friendly": 5470,
      "studying": 5471,
      "simpl": 5472,
      "Ital": 5473,
      "Wik": 5474,
      "ht": 5475,
      "obesity": 5476,
      "accounts": 5477,
      "RO": 5478,
      "ean": 5479,
      "daughter": 5480,
      "Build": 5481,
      "permanent": 5482,
      "partner": 5483,
      "trip": 5484,
      "Cancer": 5485,
      "otes": 5486,
      "slowly": 5487,
      "wants": 5488,
      "truly": 5489,
      "walking": 5490,
      "habits": 5491,
      "roof": 5492,
      "cher": 5493,
      "holds": 5494,
      "drawn": 5495,
      "eric": 5496,
      "render": 5497,
      "ensions": 5498,
      "BM": 5499,
      "mary": 5500,
      "functional": 5501,
      "Top": 5502,
      "critic": 5503,
      "Conserv": 5504,
      "Ev": 5505,
      "operate": 5506,
      "indeed": 5507,
      "framework": 5508,
      "Wood": 5509,
      "writer": 5510,
      "phones": 5511,
      "SE": 5512,
      "decide": 5513,
      "sentence": 5514,
      "bind": 5515,
      "tank": 5516,
      "neck": 5517,
      "orses": 5518,
      "Brown": 5519,
      "platform": 5520,
      "Color": 5521,
      "Rob": 5522,
      "Cho": 5523,
      "sheet": 5524,
      "minute": 5525,
      "stomach": 5526,
      "emotions": 5527,
      "zen": 5528,
      "scar": 5529,
      "acids": 5530,
      "false": 5531,
      "Dig": 5532,
      "resto": 5533,
      "Climate": 5534,
      "iatric": 5535,
      "shift": 5536,
      "institution": 5537,
      "Sign": 5538,
      "bles": 5539,
      "lers": 5540,
      "eastern": 5541,
      "ashion": 5542,
      "universe": 5543,
      "interaction": 5544,
      "PL": 5545,
      "ked": 5546,
      "extract": 5547,
      "Haw": 5548,
      "tri": 5549,
      "mixed": 5550,
      "perce": 5551,
      "drawing": 5552,
      "highlight": 5553,
      "scenar": 5554,
      "hydrogen": 5555,
      "failed": 5556,
      "Ocean": 5557,
      "greatly": 5558,
      "Pract": 5559,
      "troops": 5560,
      "Nations": 5561,
      "Quest": 5562,
      "Joseph": 5563,
      "agency": 5564,
      "Fish": 5565,
      "nd": 5566,
      "anda": 5567,
      "difficulty": 5568,
      "audience": 5569,
      "Commit": 5570,
      "Check": 5571,
      "concrete": 5572,
      "Ire": 5573,
      "Click": 5574,
      "circumstances": 5575,
      "necessarily": 5576,
      "IG": 5577,
      "align": 5578,
      "Frank": 5579,
      "biology": 5580,
      "AND": 5581,
      "paralle": 5582,
      "dust": 5583,
      "cultures": 5584,
      "Native": 5585,
      "supporting": 5586,
      "ingly": 5587,
      "hang": 5588,
      "gap": 5589,
      "pursu": 5590,
      "launch": 5591,
      "zil": 5592,
      "transition": 5593,
      "mail": 5594,
      "biggest": 5595,
      "roads": 5596,
      "compr": 5597,
      "inhib": 5598,
      "ifies": 5599,
      "RNA": 5600,
      "reader": 5601,
      "Du": 5602,
      "signals": 5603,
      "Langu": 5604,
      "ultimately": 5605,
      "Open": 5606,
      "expans": 5607,
      "acknow": 5608,
      "driven": 5609,
      "authorities": 5610,
      "accum": 5611,
      "cards": 5612,
      "Blo": 5613,
      "flower": 5614,
      "witness": 5615,
      "List": 5616,
      "laboratory": 5617,
      "entry": 5618,
      "responses": 5619,
      "mechanism": 5620,
      "preval": 5621,
      "ali": 5622,
      "bath": 5623,
      "pipe": 5624,
      "comparison": 5625,
      "ionally": 5626,
      "Michael": 5627,
      "employed": 5628,
      "mone": 5629,
      "DO": 5630,
      "purchase": 5631,
      "Big": 5632,
      "doubt": 5633,
      "carefully": 5634,
      "posing": 5635,
      "Creat": 5636,
      "accessible": 5637,
      "Sing": 5638,
      "Back": 5639,
      "join": 5640,
      "Rome": 5641,
      "covers": 5642,
      "definite": 5643,
      "philosophy": 5644,
      "Scott": 5645,
      "architect": 5646,
      "pto": 5647,
      "acting": 5648,
      "insects": 5649,
      "Furthermore": 5650,
      "improvement": 5651,
      "dedicated": 5652,
      "seas": 5653,
      "younger": 5654,
      "replaced": 5655,
      "magnetic": 5656,
      "none": 5657,
      "breathing": 5658,
      "university": 5659,
      "Royal": 5660,
      "Moreover": 5661,
      "consumers": 5662,
      "fell": 5663,
      "architecture": 5664,
      "fewer": 5665,
      "gam": 5666,
      "Down": 5667,
      "persist": 5668,
      "Northern": 5669,
      "debate": 5670,
      "Nut": 5671,
      "earl": 5672,
      "Sa": 5673,
      "ml": 5674,
      "aria": 5675,
      "indicates": 5676,
      "instrument": 5677,
      "rooms": 5678,
      "stands": 5679,
      "flag": 5680,
      "holding": 5681,
      "constructed": 5682,
      "ada": 5683,
      "machines": 5684,
      "ogue": 5685,
      "pic": 5686,
      "liament": 5687,
      "covering": 5688,
      "camera": 5689,
      "evaluation": 5690,
      "Chic": 5691,
      "colleagues": 5692,
      "vous": 5693,
      "mia": 5694,
      "anes": 5695,
      "Current": 5696,
      "crime": 5697,
      "Irish": 5698,
      "olf": 5699,
      "communicate": 5700,
      "artificial": 5701,
      "izer": 5702,
      "legs": 5703,
      "vessels": 5704,
      "conven": 5705,
      "Georg": 5706,
      "immediate": 5707,
      "Ha": 5708,
      "arrived": 5709,
      "inch": 5710,
      "smoke": 5711,
      "facing": 5712,
      "gluco": 5713,
      "vict": 5714,
      "Italy": 5715,
      "stroke": 5716,
      "Agric": 5717,
      "eld": 5718,
      "thousand": 5719,
      "compass": 5720,
      "heim": 5721,
      "ua": 5722,
      "Philip": 5723,
      "itative": 5724,
      "desire": 5725,
      "Effect": 5726,
      "behaviors": 5727,
      "turns": 5728,
      "Street": 5729,
      "Four": 5730,
      "Revolution": 5731,
      "moun": 5732,
      "tight": 5733,
      "newsp": 5734,
      "chosen": 5735,
      "icide": 5736,
      "beth": 5737,
      "programming": 5738,
      "tration": 5739,
      "destroyed": 5740,
      "crimination": 5741,
      "virtual": 5742,
      "subs": 5743,
      "maps": 5744,
      "inform": 5745,
      "Fo": 5746,
      "budget": 5747,
      "limits": 5748,
      "capture": 5749,
      "onomy": 5750,
      "CL": 5751,
      "trials": 5752,
      "preced": 5753,
      "relax": 5754,
      "swim": 5755,
      "contained": 5756,
      "shut": 5757,
      "ena": 5758,
      "inson": 5759,
      "rub": 5760,
      "Ã¼": 5761,
      "layers": 5762,
      "bread": 5763,
      "sections": 5764,
      "housing": 5765,
      "frequent": 5766,
      "cats": 5767,
      "Bus": 5768,
      "diction": 5769,
      "Special": 5770,
      "Hun": 5771,
      "aven": 5772,
      "psychological": 5773,
      "unable": 5774,
      "percentage": 5775,
      "Researchers": 5776,
      "Py": 5777,
      "TV": 5778,
      "Three": 5779,
      "recognition": 5780,
      "imper": 5781,
      "ML": 5782,
      "coordin": 5783,
      "AA": 5784,
      "ying": 5785,
      "filter": 5786,
      "lla": 5787,
      "Ireland": 5788,
      "implementation": 5789,
      "missions": 5790,
      "Richard": 5791,
      "advert": 5792,
      "blind": 5793,
      "sor": 5794,
      "regulations": 5795,
      "Lit": 5796,
      "accident": 5797,
      "doesn't": 5798,
      "compounds": 5799,
      "description": 5800,
      "vulnerable": 5801,
      "Victor": 5802,
      "promin": 5803,
      "posal": 5804,
      "instructions": 5805,
      "brow": 5806,
      "equivalent": 5807,
      "lake": 5808,
      "division": 5809,
      "taste": 5810,
      "Brazil": 5811,
      "Gard": 5812,
      "reliable": 5813,
      "Dep": 5814,
      "throw": 5815,
      "preme": 5816,
      "ongo": 5817,
      "Democr": 5818,
      "closer": 5819,
      "boy": 5820,
      "connections": 5821,
      "markets": 5822,
      "veter": 5823,
      "Ref": 5824,
      "attached": 5825,
      "omes": 5826,
      "Set": 5827,
      "criter": 5828,
      "Sil": 5829,
      "Vit": 5830,
      "rice": 5831,
      "supports": 5832,
      "Similar": 5833,
      "Spain": 5834,
      "ourselves": 5835,
      "cryst": 5836,
      "EU": 5837,
      "Empire": 5838,
      "exists": 5839,
      "joined": 5840,
      "Ther": 5841,
      "Unfortunately": 5842,
      "mining": 5843,
      "Article": 5844,
      "Ele": 5845,
      "underlying": 5846,
      "greenhouse": 5847,
      "Pop": 5848,
      "transportation": 5849,
      "Additionally": 5850,
      "fever": 5851,
      "fashion": 5852,
      "pand": 5853,
      "Youn": 5854,
      "susp": 5855,
      "printed": 5856,
      "Camp": 5857,
      "ione": 5858,
      "promise": 5859,
      "Eth": 5860,
      "crit": 5861,
      "powers": 5862,
      "chlor": 5863,
      "approved": 5864,
      "makers": 5865,
      "plements": 5866,
      "dys": 5867,
      "whereas": 5868,
      "territory": 5869,
      "Atlantic": 5870,
      "mice": 5871,
      "Mars": 5872,
      "reactions": 5873,
      "dioxide": 5874,
      "allerg": 5875,
      "vs": 5876,
      "protocol": 5877,
      "Sel": 5878,
      "han": 5879,
      "examine": 5880,
      "Administr": 5881,
      "mechanisms": 5882,
      "nearby": 5883,
      "lap": 5884,
      "usage": 5885,
      "wonâĢĻt": 5886,
      "sche": 5887,
      "theast": 5888,
      "Ur": 5889,
      "participate": 5890,
      "Bank": 5891,
      "ores": 5892,
      "ahead": 5893,
      "recept": 5894,
      "define": 5895,
      "icon": 5896,
      "Orig": 5897,
      "PDF": 5898,
      "insulin": 5899,
      "Valley": 5900,
      "decor": 5901,
      "Gra": 5902,
      "Key": 5903,
      "attend": 5904,
      "bond": 5905,
      "mg": 5906,
      "voltage": 5907,
      "noise": 5908,
      "Source": 5909,
      "Yes": 5910,
      "vote": 5911,
      "inction": 5912,
      "arg": 5913,
      "estimate": 5914,
      "wait": 5915,
      "politics": 5916,
      "Penn": 5917,
      "Plant": 5918,
      "itivity": 5919,
      "Rom": 5920,
      "feedback": 5921,
      "CB": 5922,
      "presentation": 5923,
      "defe": 5924,
      "Li": 5925,
      "arrange": 5926,
      "launched": 5927,
      "idance": 5928,
      "pled": 5929,
      "demonstrated": 5930,
      "independence": 5931,
      "minerals": 5932,
      "delivery": 5933,
      "estimates": 5934,
      "variable": 5935,
      "NS": 5936,
      "maintaining": 5937,
      "succeed": 5938,
      "orbit": 5939,
      "airs": 5940,
      "Indu": 5941,
      "competition": 5942,
      "pump": 5943,
      "department": 5944,
      "nerve": 5945,
      "config": 5946,
      "burning": 5947,
      "rising": 5948,
      "sme": 5949,
      "Start": 5950,
      "'ve": 5951,
      "DC": 5952,
      "uni": 5953,
      "mosqu": 5954,
      "Tom": 5955,
      "Carolina": 5956,
      "ishment": 5957,
      "physics": 5958,
      "whatever": 5959,
      "Age": 5960,
      "objective": 5961,
      "conclusion": 5962,
      "fan": 5963,
      "forth": 5964,
      "falls": 5965,
      "Eastern": 5966,
      "sts": 5967,
      "generations": 5968,
      "Committee": 5969,
      "Never": 5970,
      "Author": 5971,
      "demonstrate": 5972,
      "supplies": 5973,
      "Chicago": 5974,
      "evil": 5975,
      "knows": 5976,
      "HS": 5977,
      "abled": 5978,
      "supposed": 5979,
      "idespread": 5980,
      "meters": 5981,
      "comments": 5982,
      "spaces": 5983,
      "resulted": 5984,
      "breeding": 5985,
      "putting": 5986,
      "Academy": 5987,
      "poison": 5988,
      "surve": 5989,
      "customers": 5990,
      "beliefs": 5991,
      "Chapter": 5992,
      "icing": 5993,
      "Bab": 5994,
      "twenty": 5995,
      "tall": 5996,
      "commod": 5997,
      "mine": 5998,
      "funds": 5999,
      "guaran": 6000,
      "blow": 6001,
      "Dar": 6002,
      "delay": 6003,
      "string": 6004,
      "Type": 6005,
      "rhy": 6006,
      "placing": 6007,
      "cow": 6008,
      "agreed": 6009,
      "negot": 6010,
      "categories": 6011,
      "Low": 6012,
      "sey": 6013,
      "Mountain": 6014,
      "heating": 6015,
      "resistant": 6016,
      "andon": 6017,
      "Italian": 6018,
      "graduate": 6019,
      "Times": 6020,
      "Martin": 6021,
      "anta": 6022,
      "Family": 6023,
      "Contin": 6024,
      "arenâĢĻt": 6025,
      "umes": 6026,
      "Hill": 6027,
      "iac": 6028,
      "pool": 6029,
      "breaks": 6030,
      "scene": 6031,
      "thal": 6032,
      "utch": 6033,
      "refuge": 6034,
      "tissues": 6035,
      "spending": 6036,
      "consumer": 6037,
      "sec": 6038,
      "substances": 6039,
      "shad": 6040,
      "issued": 6041,
      "grew": 6042,
      "remark": 6043,
      "weâĢĻre": 6044,
      "zed": 6045,
      "blocks": 6046,
      "everyday": 6047,
      "peak": 6048,
      "UT": 6049,
      "rivers": 6050,
      "challenging": 6051,
      "street": 6052,
      "owner": 6053,
      "damaged": 6054,
      "Bill": 6055,
      "Â©": 6056,
      "clop": 6057,
      "heads": 6058,
      "prev": 6059,
      "citizen": 6060,
      "ita": 6061,
      "fert": 6062,
      "asking": 6063,
      "nose": 6064,
      "bits": 6065,
      "emic": 6066,
      "tub": 6067,
      "ented": 6068,
      "DonâĢĻt": 6069,
      "males": 6070,
      "fract": 6071,
      "Op": 6072,
      "insurance": 6073,
      "sacr": 6074,
      "faced": 6075,
      "RA": 6076,
      "ini": 6077,
      "glucose": 6078,
      "integrated": 6079,
      "Ange": 6080,
      "elev": 6081,
      "Consider": 6082,
      "archae": 6083,
      "Lar": 6084,
      "Inc": 6085,
      "vac": 6086,
      "gov": 6087,
      "match": 6088,
      "Sciences": 6089,
      "mortality": 6090,
      "renewable": 6091,
      "painting": 6092,
      "Columb": 6093,
      "terior": 6094,
      "therap": 6095,
      "session": 6096,
      "manif": 6097,
      "myster": 6098,
      "industries": 6099,
      "Community": 6100,
      "Try": 6101,
      "award": 6102,
      "seeking": 6103,
      "IA": 6104,
      "Mean": 6105,
      "weigh": 6106,
      "association": 6107,
      "observations": 6108,
      "psy": 6109,
      "robot": 6110,
      "ulf": 6111,
      "Less": 6112,
      "eff": 6113,
      "MO": 6114,
      "Sc": 6115,
      "Blue": 6116,
      "Holy": 6117,
      "EP": 6118,
      "route": 6119,
      "Ko": 6120,
      "fabric": 6121,
      "orn": 6122,
      "cardio": 6123,
      "widespread": 6124,
      "pill": 6125,
      "Board": 6126,
      "Gar": 6127,
      "interactions": 6128,
      "announced": 6129,
      "honor": 6130,
      "worry": 6131,
      "thritis": 6132,
      "len": 6133,
      "slavery": 6134,
      "ammat": 6135,
      "reven": 6136,
      "istry": 6137,
      "shif": 6138,
      "dress": 6139,
      "Schol": 6140,
      "dians": 6141,
      "myth": 6142,
      "desc": 6143,
      "election": 6144,
      "boys": 6145,
      "Based": 6146,
      "installed": 6147,
      "etics": 6148,
      "mechanical": 6149,
      "tropical": 6150,
      "adap": 6151,
      "arts": 6152,
      "asy": 6153,
      "resident": 6154,
      "ureau": 6155,
      "kne": 6156,
      "Kingdom": 6157,
      "usions": 6158,
      "reduces": 6159,
      "mad": 6160,
      "horses": 6161,
      "stri": 6162,
      "accuracy": 6163,
      "bees": 6164,
      "holes": 6165,
      "brand": 6166,
      "centre": 6167,
      "adoles": 6168,
      "Exper": 6169,
      "banks": 6170,
      "offering": 6171,
      "ller": 6172,
      "listen": 6173,
      "abul": 6174,
      "instruments": 6175,
      "theore": 6176,
      "pher": 6177,
      "expansion": 6178,
      "epide": 6179,
      "organs": 6180,
      "alysis": 6181,
      "charged": 6182,
      "pling": 6183,
      "het": 6184,
      "involving": 6185,
      "evaluate": 6186,
      "nom": 6187,
      "Language": 6188,
      "gut": 6189,
      "commission": 6190,
      "lad": 6191,
      "Mult": 6192,
      "brings": 6193,
      "informed": 6194,
      "kidney": 6195,
      "thma": 6196,
      "viewed": 6197,
      "runs": 6198,
      "matters": 6199,
      "pharm": 6200,
      "discrimination": 6201,
      "smooth": 6202,
      "preventing": 6203,
      "Dou": 6204,
      "aced": 6205,
      "gical": 6206,
      "SO": 6207,
      "essays": 6208,
      "suring": 6209,
      "asty": 6210,
      "Cross": 6211,
      "kg": 6212,
      "bra": 6213,
      "ongoing": 6214,
      "bean": 6215,
      "coron": 6216,
      "Several": 6217,
      "moisture": 6218,
      "distributed": 6219,
      "county": 6220,
      "committed": 6221,
      "ounce": 6222,
      "Conne": 6223,
      "telling": 6224,
      "cribed": 6225,
      "females": 6226,
      "intellectual": 6227,
      "legislation": 6228,
      "composed": 6229,
      "MP": 6230,
      "calories": 6231,
      "indicated": 6232,
      "designs": 6233,
      "anth": 6234,
      "complicated": 6235,
      "ighter": 6236,
      "fellow": 6237,
      "outer": 6238,
      "missing": 6239,
      "circle": 6240,
      "collaboration": 6241,
      "Viet": 6242,
      "Next": 6243,
      "keting": 6244,
      "bringing": 6245,
      "respiratory": 6246,
      "raph": 6247,
      "butter": 6248,
      "measurement": 6249,
      "Method": 6250,
      "pu": 6251,
      "brew": 6252,
      "dynamic": 6253,
      "relief": 6254,
      "texts": 6255,
      "plicit": 6256,
      "players": 6257,
      "feder": 6258,
      "influenced": 6259,
      "declared": 6260,
      "passing": 6261,
      "yard": 6262,
      "correctly": 6263,
      "mood": 6264,
      "explanation": 6265,
      "gly": 6266,
      "Asian": 6267,
      "solving": 6268,
      "participation": 6269,
      "respectively": 6270,
      "babies": 6271,
      "tube": 6272,
      "Services": 6273,
      "hormon": 6274,
      "surprising": 6275,
      "ammatory": 6276,
      "settings": 6277,
      "planned": 6278,
      "volcan": 6279,
      "endo": 6280,
      "zon": 6281,
      "constantly": 6282,
      "rays": 6283,
      "analys": 6284,
      "intense": 6285,
      "surfaces": 6286,
      "amins": 6287,
      "umps": 6288,
      "parag": 6289,
      "continuous": 6290,
      "controls": 6291,
      "welling": 6292,
      "iox": 6293,
      "measurements": 6294,
      "paras": 6295,
      "rose": 6296,
      "thorough": 6297,
      "Without": 6298,
      "azine": 6299,
      "coastal": 6300,
      "strengthen": 6301,
      "proven": 6302,
      "category": 6303,
      "serving": 6304,
      "Young": 6305,
      "Kar": 6306,
      "facility": 6307,
      "yo": 6308,
      "Lead": 6309,
      "Ul": 6310,
      "iant": 6311,
      "Star": 6312,
      "victims": 6313,
      "ij": 6314,
      "stones": 6315,
      "mineral": 6316,
      "significance": 6317,
      "molecular": 6318,
      "Grand": 6319,
      "Ep": 6320,
      "Hall": 6321,
      "carrying": 6322,
      "somewhat": 6323,
      "exercises": 6324,
      "Indians": 6325,
      "agents": 6326,
      "epis": 6327,
      "publication": 6328,
      "scholar": 6329,
      "grid": 6330,
      "score": 6331,
      "Which": 6332,
      "passage": 6333,
      "theories": 6334,
      "entered": 6335,
      "Dec": 6336,
      "bid": 6337,
      "physi": 6338,
      "remed": 6339,
      "fishing": 6340,
      "enemy": 6341,
      "rely": 6342,
      "crew": 6343,
      "debt": 6344,
      "receiving": 6345,
      "Face": 6346,
      "chick": 6347,
      "amber": 6348,
      "destruction": 6349,
      "manip": 6350,
      "roles": 6351,
      "captured": 6352,
      "Industr": 6353,
      "esis": 6354,
      "signed": 6355,
      "HT": 6356,
      "theme": 6357,
      "trouble": 6358,
      "Ã³": 6359,
      "grams": 6360,
      "powered": 6361,
      "er's": 6362,
      "terror": 6363,
      "bacterial": 6364,
      "strongly": 6365,
      "nucle": 6366,
      "Oxford": 6367,
      "deploy": 6368,
      "printing": 6369,
      "spectrum": 6370,
      "horizon": 6371,
      "considering": 6372,
      "tos": 6373,
      "wheel": 6374,
      "Sk": 6375,
      "strip": 6376,
      "racial": 6377,
      "aland": 6378,
      "Security": 6379,
      "Cat": 6380,
      "sales": 6381,
      "effectiveness": 6382,
      "fairly": 6383,
      "neither": 6384,
      "Change": 6385,
      "wine": 6386,
      "finished": 6387,
      "incred": 6388,
      "guidance": 6389,
      "nervous": 6390,
      "Pak": 6391,
      "rational": 6392,
      "criteria": 6393,
      "Thir": 6394,
      "oxid": 6395,
      "Whether": 6396,
      "fires": 6397,
      "Wall": 6398,
      "outcome": 6399,
      "artists": 6400,
      "remind": 6401,
      "tip": 6402,
      "ember": 6403,
      "transmit": 6404,
      "domain": 6405,
      "Den": 6406,
      "fourth": 6407,
      "wound": 6408,
      "statistics": 6409,
      "engaged": 6410,
      "Resources": 6411,
      "seconds": 6412,
      "weapons": 6413,
      "satellite": 6414,
      "Dom": 6415,
      "rocks": 6416,
      "Scientists": 6417,
      "breaking": 6418,
      "syl": 6419,
      "abnormal": 6420,
      "asts": 6421,
      "confirmed": 6422,
      "worship": 6423,
      "artist": 6424,
      "coin": 6425,
      "Hosp": 6426,
      "uous": 6427,
      "preparation": 6428,
      "intent": 6429,
      "detection": 6430,
      "EE": 6431,
      "rd": 6432,
      "writers": 6433,
      "realize": 6434,
      "husband": 6435,
      "oul": 6436,
      "desired": 6437,
      "kins": 6438,
      "ode": 6439,
      "osing": 6440,
      "DS": 6441,
      "inser": 6442,
      "pounds": 6443,
      "iti": 6444,
      "plenty": 6445,
      "scientist": 6446,
      "irrit": 6447,
      "perior": 6448,
      "silver": 6449,
      "Engineering": 6450,
      "Word": 6451,
      "focuses": 6452,
      "Tim": 6453,
      "implemented": 6454,
      "Cer": 6455,
      "mild": 6456,
      "tent": 6457,
      "Non": 6458,
      "grain": 6459,
      "reaching": 6460,
      "contemporary": 6461,
      "Mel": 6462,
      "centers": 6463,
      "oples": 6464,
      "messages": 6465,
      "variables": 6466,
      "pressive": 6467,
      "ativity": 6468,
      "thanks": 6469,
      "gers": 6470,
      "recommendations": 6471,
      "abandon": 6472,
      "Director": 6473,
      "boat": 6474,
      "Hand": 6475,
      "trend": 6476,
      "examined": 6477,
      "forget": 6478,
      "conversation": 6479,
      "Syn": 6480,
      "oo": 6481,
      "defense": 6482,
      "roughly": 6483,
      "depart": 6484,
      "intensity": 6485,
      "detected": 6486,
      "dollars": 6487,
      "inflammatory": 6488,
      "excessive": 6489,
      "graphical": 6490,
      "cleaning": 6491,
      "essentially": 6492,
      "phosph": 6493,
      "examination": 6494,
      "ingredients": 6495,
      "combat": 6496,
      "treating": 6497,
      "favorite": 6498,
      "Sir": 6499,
      "maintained": 6500,
      "visitors": 6501,
      "acute": 6502,
      "abulary": 6503,
      "IF": 6504,
      "sought": 6505,
      "migration": 6506,
      "Ly": 6507,
      "beauty": 6508,
      "Pur": 6509,
      "laid": 6510,
      "lihood": 6511,
      "forcement": 6512,
      "Modern": 6513,
      "Vietnam": 6514,
      "Van": 6515,
      "etry": 6516,
      "Agency": 6517,
      "interpre": 6518,
      "modified": 6519,
      "traits": 6520,
      "planted": 6521,
      "nels": 6522,
      "screening": 6523,
      "branch": 6524,
      "pra": 6525,
      "linear": 6526,
      "structural": 6527,
      "Leg": 6528,
      "furn": 6529,
      "mold": 6530,
      "aims": 6531,
      "owned": 6532,
      "airy": 6533,
      "PO": 6534,
      "Having": 6535,
      "stract": 6536,
      "rarely": 6537,
      "itudes": 6538,
      "earthqu": 6539,
      "Light": 6540,
      "polar": 6541,
      "viral": 6542,
      "satisf": 6543,
      "moves": 6544,
      "EPA": 6545,
      "radical": 6546,
      "reject": 6547,
      "neutral": 6548,
      "uncertain": 6549,
      "hormone": 6550,
      "Fund": 6551,
      "Ident": 6552,
      "aked": 6553,
      "Bio": 6554,
      "processed": 6555,
      "seemed": 6556,
      "opposed": 6557,
      "column": 6558,
      "ares": 6559,
      "principal": 6560,
      "IDS": 6561,
      "Party": 6562,
      "islands": 6563,
      "uted": 6564,
      "gus": 6565,
      "knowing": 6566,
      "sharp": 6567,
      "orous": 6568,
      "igan": 6569,
      "District": 6570,
      "logic": 6571,
      "Reading": 6572,
      "Remember": 6573,
      "wis": 6574,
      "Fun": 6575,
      "characterized": 6576,
      "amazing": 6577,
      "pregnant": 6578,
      "subsequent": 6579,
      "degrad": 6580,
      "Ot": 6581,
      "acle": 6582,
      "Columbia": 6583,
      "HA": 6584,
      "Jul": 6585,
      "clock": 6586,
      "planting": 6587,
      "ki": 6588,
      "wage": 6589,
      "shore": 6590,
      "Perhaps": 6591,
      "Ohio": 6592,
      "chest": 6593,
      "farming": 6594,
      "oneâĢĻs": 6595,
      "beat": 6596,
      "DP": 6597,
      "partnership": 6598,
      "varieties": 6599,
      "Moon": 6600,
      "distur": 6601,
      "cents": 6602,
      "balanced": 6603,
      "Naz": 6604,
      "onia": 6605,
      "atically": 6606,
      "directed": 6607,
      "Ama": 6608,
      "lymph": 6609,
      "implications": 6610,
      "spin": 6611,
      "escape": 6612,
      "hazard": 6613,
      "restr": 6614,
      "arrest": 6615,
      "vard": 6616,
      "pine": 6617,
      "thermal": 6618,
      "careful": 6619,
      "Introdu": 6620,
      "interpretation": 6621,
      "diameter": 6622,
      "matically": 6623,
      "tech": 6624,
      "Model": 6625,
      "flows": 6626,
      "prompt": 6627,
      "Wal": 6628,
      "Cell": 6629,
      "mony": 6630,
      "ioxid": 6631,
      "berries": 6632,
      "inspir": 6633,
      "functioning": 6634,
      "holders": 6635,
      "cooking": 6636,
      "borne": 6637,
      "Fire": 6638,
      "Inte": 6639,
      "mathematics": 6640,
      "bohydr": 6641,
      "Bul": 6642,
      "drain": 6643,
      "fest": 6644,
      "seal": 6645,
      "Online": 6646,
      "Boston": 6647,
      "TR": 6648,
      "gry": 6649,
      "Father": 6650,
      "colonial": 6651,
      "inks": 6652,
      "regulation": 6653,
      "cash": 6654,
      "variation": 6655,
      "shapes": 6656,
      "hall": 6657,
      "stronger": 6658,
      "phenomenon": 6659,
      "considerable": 6660,
      "can't": 6661,
      "Centre": 6662,
      "Mu": 6663,
      "Heart": 6664,
      "rab": 6665,
      "Lim": 6666,
      "healing": 6667,
      "emit": 6668,
      "Eliza": 6669,
      "Treatment": 6670,
      "Liter": 6671,
      "delivered": 6672,
      "parallel": 6673,
      "Tu": 6674,
      "meter": 6675,
      "beings": 6676,
      "teams": 6677,
      "âĪ": 6678,
      "Zealand": 6679,
      "defect": 6680,
      "prohib": 6681,
      "removal": 6682,
      "quarter": 6683,
      "Ã¶": 6684,
      "peror": 6685,
      "BS": 6686,
      "Safety": 6687,
      "imagine": 6688,
      "ument": 6689,
      "innovation": 6690,
      "Queen": 6691,
      "serves": 6692,
      "Johnson": 6693,
      "Swed": 6694,
      "cort": 6695,
      "panel": 6696,
      "universal": 6697,
      "ography": 6698,
      "eries": 6699,
      "clothing": 6700,
      "oids": 6701,
      "inspired": 6702,
      "Prov": 6703,
      "tut": 6704,
      "alog": 6705,
      "plot": 6706,
      "defend": 6707,
      "Person": 6708,
      "merely": 6709,
      "Tit": 6710,
      "that's": 6711,
      "gradually": 6712,
      "Did": 6713,
      "nings": 6714,
      "bling": 6715,
      "literacy": 6716,
      "inity": 6717,
      "stability": 6718,
      "copper": 6719,
      "encouraged": 6720,
      "Cha": 6721,
      "breed": 6722,
      "warning": 6723,
      "branches": 6724,
      "fers": 6725,
      "unk": 6726,
      "happening": 6727,
      "threats": 6728,
      "oes": 6729,
      "Ye": 6730,
      "gained": 6731,
      "unt": 6732,
      "compens": 6733,
      "Avoid": 6734,
      "gate": 6735,
      "listening": 6736,
      "acing": 6737,
      "absence": 6738,
      "attempts": 6739,
      "split": 6740,
      "Mich": 6741,
      "itals": 6742,
      "Adv": 6743,
      "Fer": 6744,
      "ventions": 6745,
      "ansas": 6746,
      "maybe": 6747,
      "equally": 6748,
      "synthesis": 6749,
      "coln": 6750,
      "adminis": 6751,
      "Sar": 6752,
      "âĨ": 6753,
      "reward": 6754,
      "caught": 6755,
      "chron": 6756,
      "iana": 6757,
      "iod": 6758,
      "tray": 6759,
      "Spir": 6760,
      "inqu": 6761,
      "anywhere": 6762,
      "corner": 6763,
      "Hu": 6764,
      "arthritis": 6765,
      "Pakistan": 6766,
      "Ram": 6767,
      "aska": 6768,
      "GO": 6769,
      "transform": 6770,
      "pets": 6771,
      "hence": 6772,
      "imaging": 6773,
      "RS": 6774,
      "istical": 6775,
      "sch": 6776,
      "âĢĻd": 6777,
      "unusual": 6778,
      "oms": 6779,
      "formula": 6780,
      "newly": 6781,
      "membr": 6782,
      "currency": 6783,
      "Oper": 6784,
      "communications": 6785,
      "isto": 6786,
      "supplements": 6787,
      "berry": 6788,
      "Christmas": 6789,
      "ruption": 6790,
      "Jeff": 6791,
      "union": 6792,
      "courage": 6793,
      "trait": 6794,
      "substantial": 6795,
      "acres": 6796,
      "ampl": 6797,
      "eline": 6798,
      "Assess": 6799,
      "elected": 6800,
      "steam": 6801,
      "Ru": 6802,
      "ubs": 6803,
      "ora": 6804,
      "arter": 6805,
      "honey": 6806,
      "bee": 6807,
      "statements": 6808,
      "slave": 6809,
      "Prevention": 6810,
      "disaster": 6811,
      "PV": 6812,
      "confident": 6813,
      "cattle": 6814,
      "erve": 6815,
      "occurring": 6816,
      "classical": 6817,
      "saving": 6818,
      "driver": 6819,
      "senior": 6820,
      "mann": 6821,
      "difficulties": 6822,
      "isolated": 6823,
      "interact": 6824,
      "Sto": 6825,
      "officers": 6826,
      "errors": 6827,
      "drought": 6828,
      "Christians": 6829,
      "refr": 6830,
      "initially": 6831,
      "Pot": 6832,
      "deeper": 6833,
      "compound": 6834,
      "neighborhood": 6835,
      "scholars": 6836,
      "murder": 6837,
      "Business": 6838,
      "array": 6839,
      "CN": 6840,
      "Step": 6841,
      "Fact": 6842,
      "consume": 6843,
      "learners": 6844,
      "Coast": 6845,
      "dealing": 6846,
      "Organization": 6847,
      "prominent": 6848,
      "crimin": 6849,
      "funded": 6850,
      "deficiency": 6851,
      "dating": 6852,
      "Recent": 6853,
      "Being": 6854,
      "Point": 6855,
      "appointed": 6856,
      "dependence": 6857,
      "Lincoln": 6858,
      "Differ": 6859,
      "ancest": 6860,
      "ibl": 6861,
      "trends": 6862,
      "Prince": 6863,
      "agent": 6864,
      "thyroid": 6865,
      "igate": 6866,
      "childrenâĢĻs": 6867,
      "protective": 6868,
      "youâĢĻve": 6869,
      "Korea": 6870,
      "temple": 6871,
      "gence": 6872,
      "judge": 6873,
      "Administration": 6874,
      "Copy": 6875,
      "sport": 6876,
      "traditions": 6877,
      "spat": 6878,
      "bigger": 6879,
      "soul": 6880,
      "ura": 6881,
      "orter": 6882,
      "surge": 6883,
      "calling": 6884,
      "Network": 6885,
      "Again": 6886,
      "stations": 6887,
      "abil": 6888,
      "photos": 6889,
      "hem": 6890,
      "UV": 6891,
      "asthma": 6892,
      "observe": 6893,
      "paragraph": 6894,
      "Ret": 6895,
      "yes": 6896,
      "dir": 6897,
      "decreased": 6898,
      "bag": 6899,
      "tles": 6900,
      "eliminate": 6901,
      "stores": 6902,
      "slaves": 6903,
      "Lee": 6904,
      "investigation": 6905,
      "ende": 6906,
      "editor": 6907,
      "decay": 6908,
      "cooling": 6909,
      "criminal": 6910,
      "assume": 6911,
      "duty": 6912,
      "videos": 6913,
      "vaccines": 6914,
      "provider": 6915,
      "biom": 6916,
      "advent": 6917,
      "isk": 6918,
      "disput": 6919,
      "ordered": 6920,
      "cig": 6921,
      "earliest": 6922,
      "availability": 6923,
      "measuring": 6924,
      "observation": 6925,
      "LetâĢĻs": 6926,
      "ecosystem": 6927,
      "Grow": 6928,
      "hidden": 6929,
      "evolved": 6930,
      "suffered": 6931,
      "demands": 6932,
      "Cro": 6933,
      "experimental": 6934,
      "icious": 6935,
      "assigned": 6936,
      "Sand": 6937,
      "cha": 6938,
      "consideration": 6939,
      "factory": 6940,
      "computing": 6941,
      "humid": 6942,
      "ultr": 6943,
      "fron": 6944,
      "wheat": 6945,
      "Division": 6946,
      "lists": 6947,
      "sensitivity": 6948,
      "flash": 6949,
      "targets": 6950,
      "Far": 6951,
      "adds": 6952,
      "Windows": 6953,
      "sitting": 6954,
      "vitamins": 6955,
      "Play": 6956,
      "beans": 6957,
      "icted": 6958,
      "complications": 6959,
      "translation": 6960,
      "flour": 6961,
      "icate": 6962,
      "antibiotics": 6963,
      "haust": 6964,
      "Ã¢": 6965,
      "bomb": 6966,
      "keys": 6967,
      "reasonable": 6968,
      "autism": 6969,
      "finger": 6970,
      "Supreme": 6971,
      "aching": 6972,
      "EF": 6973,
      "Incre": 6974,
      "indigenous": 6975,
      "aneously": 6976,
      "ameters": 6977,
      "Math": 6978,
      "jac": 6979,
      "Clar": 6980,
      "chart": 6981,
      "iary": 6982,
      "ieval": 6983,
      "incent": 6984,
      "identification": 6985,
      "Protection": 6986,
      "emphasis": 6987,
      "Forest": 6988,
      "physician": 6989,
      "channel": 6990,
      "heavily": 6991,
      "clip": 6992,
      "qualities": 6993,
      "flies": 6994,
      "concerning": 6995,
      "perception": 6996,
      "writes": 6997,
      "sunlight": 6998,
      "nitrogen": 6999,
      "Scotland": 7000,
      "regarded": 7001,
      "Mot": 7002,
      "dish": 7003,
      "Head": 7004,
      "ears": 7005,
      "kingdom": 7006,
      "innovative": 7007,
      "suscept": 7008,
      "uset": 7009,
      "pandemic": 7010,
      "planets": 7011,
      "iro": 7012,
      "odiversity": 7013,
      "cence": 7014,
      "Iran": 7015,
      "musical": 7016,
      "schedule": 7017,
      "Abr": 7018,
      "alpha": 7019,
      "rite": 7020,
      "cyber": 7021,
      "ethical": 7022,
      "Little": 7023,
      "assets": 7024,
      "phrase": 7025,
      "ria": 7026,
      "settlement": 7027,
      "Due": 7028,
      "inated": 7029,
      "Trad": 7030,
      "proceed": 7031,
      "dies": 7032,
      "finds": 7033,
      "bat": 7034,
      "uality": 7035,
      "yer": 7036,
      "folk": 7037,
      "windows": 7038,
      "publish": 7039,
      "ount": 7040,
      "ipedia": 7041,
      "Works": 7042,
      "mosquito": 7043,
      "Cir": 7044,
      "illa": 7045,
      "df": 7046,
      "laser": 7047,
      "Survey": 7048,
      "icting": 7049,
      "hu": 7050,
      "etime": 7051,
      "Edward": 7052,
      "definitely": 7053,
      "exceed": 7054,
      "attain": 7055,
      "literary": 7056,
      "LO": 7057,
      "Secret": 7058,
      "dium": 7059,
      "granted": 7060,
      "chemistry": 7061,
      "performing": 7062,
      "aker": 7063,
      "visited": 7064,
      "Massach": 7065,
      "Us": 7066,
      "carbohydr": 7067,
      "Following": 7068,
      "consciousness": 7069,
      "ME": 7070,
      "pull": 7071,
      "fined": 7072,
      "experiencing": 7073,
      "Call": 7074,
      "whel": 7075,
      "chair": 7076,
      "batteries": 7077,
      "identifying": 7078,
      "killing": 7079,
      "Rock": 7080,
      "fatty": 7081,
      "acquired": 7082,
      "moderate": 7083,
      "diagram": 7084,
      "vertical": 7085,
      "usetts": 7086,
      "uten": 7087,
      "cab": 7088,
      "Policy": 7089,
      "Pass": 7090,
      "Conservation": 7091,
      "Books": 7092,
      "ounder": 7093,
      "worst": 7094,
      "dietary": 7095,
      "tobac": 7096,
      "representation": 7097,
      "vania": 7098,
      "television": 7099,
      "seat": 7100,
      "adverse": 7101,
      "grades": 7102,
      "hed": 7103,
      "Dev": 7104,
      "pestic": 7105,
      "ctr": 7106,
      "interactive": 7107,
      "Cambridge": 7108,
      "meals": 7109,
      "overcome": 7110,
      "Massachusetts": 7111,
      "ec": 7112,
      "automatically": 7113,
      "pace": 7114,
      "Road": 7115,
      "ifications": 7116,
      "Indeed": 7117,
      "Solar": 7118,
      "Super": 7119,
      "tack": 7120,
      "grows": 7121,
      "orph": 7122,
      "Card": 7123,
      "inhabit": 7124,
      "engineers": 7125,
      "revers": 7126,
      "authen": 7127,
      "violent": 7128,
      "scores": 7129,
      "oured": 7130,
      "Ba": 7131,
      "Force": 7132,
      "armed": 7133,
      "autom": 7134,
      "weakness": 7135,
      "dream": 7136,
      "ona": 7137,
      "ilation": 7138,
      "Vitamin": 7139,
      "eration": 7140,
      "aham": 7141,
      "geome": 7142,
      "insight": 7143,
      "antioxid": 7144,
      "nuts": 7145,
      "shock": 7146,
      "styles": 7147,
      "mud": 7148,
      "Page": 7149,
      "reform": 7150,
      "Building": 7151,
      "cardiovascular": 7152,
      "exhaust": 7153,
      "ranging": 7154,
      "concentrations": 7155,
      "Thanks": 7156,
      "stuff": 7157,
      "Battle": 7158,
      "SP": 7159,
      "mixture": 7160,
      "quantum": 7161,
      "Spring": 7162,
      "cury": 7163,
      "classified": 7164,
      "hardware": 7165,
      "induced": 7166,
      "protecting": 7167,
      "concluded": 7168,
      "regardless": 7169,
      "inject": 7170,
      "vised": 7171,
      "irus": 7172,
      "bled": 7173,
      "Ven": 7174,
      "disabilities": 7175,
      "Vo": 7176,
      "icks": 7177,
      "affecting": 7178,
      "pla": 7179,
      "Colorado": 7180,
      "mol": 7181,
      "varies": 7182,
      "nice": 7183,
      "GodâĢĻs": 7184,
      "stake": 7185,
      "lungs": 7186,
      "IâĢĻve": 7187,
      "conference": 7188,
      "Drug": 7189,
      "romo": 7190,
      "usalem": 7191,
      "urine": 7192,
      "superior": 7193,
      "Minister": 7194,
      "tap": 7195,
      "Scholar": 7196,
      "Max": 7197,
      "manufacturers": 7198,
      "sensors": 7199,
      "flying": 7200,
      "powder": 7201,
      "mothers": 7202,
      "width": 7203,
      "Georgia": 7204,
      "phal": 7205,
      "calculated": 7206,
      "girl": 7207,
      "Hospital": 7208,
      "passion": 7209,
      "democracy": 7210,
      "aine": 7211,
      "Pen": 7212,
      "buried": 7213,
      "commitment": 7214,
      "gases": 7215,
      "falling": 7216,
      "addressed": 7217,
      "Mah": 7218,
      "giant": 7219,
      "introduce": 7220,
      "contribution": 7221,
      "contributed": 7222,
      "lens": 7223,
      "extend": 7224,
      "illing": 7225,
      "Jerusalem": 7226,
      "enorm": 7227,
      "providers": 7228,
      "Writing": 7229,
      "reput": 7230,
      "slo": 7231,
      "player": 7232,
      "integration": 7233,
      "incident": 7234,
      "tot": 7235,
      "Saint": 7236,
      "humanity": 7237,
      "spots": 7238,
      "pointed": 7239,
      "pac": 7240,
      "overwhel": 7241,
      "aneous": 7242,
      "CDC": 7243,
      "technological": 7244,
      "coverage": 7245,
      "mathematical": 7246,
      "gling": 7247,
      "Pennsyl": 7248,
      "oga": 7249,
      "Die": 7250,
      "Mach": 7251,
      "mile": 7252,
      "iny": 7253,
      "objectives": 7254,
      "workshe": 7255,
      "button": 7256,
      "quantity": 7257,
      "rhe": 7258,
      "thew": 7259,
      "athlet": 7260,
      "Elizabeth": 7261,
      "behavioral": 7262,
      "galax": 7263,
      "Unlike": 7264,
      "recycling": 7265,
      "tables": 7266,
      "atively": 7267,
      "separated": 7268,
      "peoples": 7269,
      "vocabulary": 7270,
      "angers": 7271,
      "Facebook": 7272,
      "Equ": 7273,
      "incidence": 7274,
      "fusion": 7275,
      "personality": 7276,
      "enables": 7277,
      "educators": 7278,
      "Level": 7279,
      "oldest": 7280,
      "I'm": 7281,
      "narrative": 7282,
      "Mur": 7283,
      "lasting": 7284,
      "aret": 7285,
      "sensor": 7286,
      "panels": 7287,
      "CI": 7288,
      "sizes": 7289,
      "igue": 7290,
      "Dutch": 7291,
      "verb": 7292,
      "ecological": 7293,
      "pH": 7294,
      "Way": 7295,
      "keeps": 7296,
      "itory": 7297,
      "mn": 7298,
      "dance": 7299,
      "fascin": 7300,
      "Digital": 7301,
      "tricts": 7302,
      "chances": 7303,
      "analyze": 7304,
      "cancers": 7305,
      "versions": 7306,
      "nutrient": 7307,
      "Later": 7308,
      "substit": 7309,
      "Help": 7310,
      "resid": 7311,
      "selling": 7312,
      "cotton": 7313,
      "Invest": 7314,
      "grounds": 7315,
      "disability": 7316,
      "specim": 7317,
      "Justice": 7318,
      "plates": 7319,
      "elder": 7320,
      "Field": 7321,
      "membrane": 7322,
      "losing": 7323,
      "apor": 7324,
      "updated": 7325,
      "enza": 7326,
      "researcher": 7327,
      "lighting": 7328,
      "psychology": 7329,
      "programme": 7330,
      "ishop": 7331,
      "Look": 7332,
      "reporting": 7333,
      "SD": 7334,
      "Symp": 7335,
      "terr": 7336,
      "Arctic": 7337,
      "heritage": 7338,
      "watching": 7339,
      "propag": 7340,
      "smell": 7341,
      "clopedia": 7342,
      "cosm": 7343,
      "Ped": 7344,
      "Nutr": 7345,
      "Spirit": 7346,
      "illegal": 7347,
      "actively": 7348,
      "batt": 7349,
      "audio": 7350,
      "taxes": 7351,
      "manager": 7352,
      "achievement": 7353,
      "rev": 7354,
      "consumed": 7355,
      "dramatic": 7356,
      "Christianity": 7357,
      "boundaries": 7358,
      "reets": 7359,
      "noticed": 7360,
      "simult": 7361,
      "Flo": 7362,
      "zheim": 7363,
      "acles": 7364,
      "manifest": 7365,
      "bury": 7366,
      "probability": 7367,
      "farms": 7368,
      "focusing": 7369,
      "summary": 7370,
      "tumor": 7371,
      "tong": 7372,
      "Confeder": 7373,
      "counsel": 7374,
      "ENT": 7375,
      "duration": 7376,
      "managing": 7377,
      "enger": 7378,
      "semin": 7379,
      "settled": 7380,
      "archy": 7381,
      "interventions": 7382,
      "Analysis": 7383,
      "exciting": 7384,
      "Hal": 7385,
      "rh": 7386,
      "ador": 7387,
      "thereby": 7388,
      "culpt": 7389,
      "mountains": 7390,
      "evident": 7391,
      "sive": 7392,
      "ctive": 7393,
      "confirm": 7394,
      "crash": 7395,
      "potato": 7396,
      "athe": 7397,
      "entr": 7398,
      "tebr": 7399,
      "FA": 7400,
      "logy": 7401,
      "vibr": 7402,
      "compost": 7403,
      "invasive": 7404,
      "aimed": 7405,
      "customer": 7406,
      "Paren": 7407,
      "traction": 7408,
      "apse": 7409,
      "improvements": 7410,
      "AIDS": 7411,
      "Neuro": 7412,
      "Right": 7413,
      "hat": 7414,
      "gravity": 7415,
      "intention": 7416,
      "Pennsylvania": 7417,
      "Wel": 7418,
      "lide": 7419,
      "Â£": 7420,
      "ensuring": 7421,
      "alleg": 7422,
      "iments": 7423,
      "resil": 7424,
      "antly": 7425,
      "itarian": 7426,
      "gged": 7427,
      "wan": 7428,
      "lined": 7429,
      "iture": 7430,
      "variations": 7431,
      "labour": 7432,
      "fet": 7433,
      "Place": 7434,
      "fuels": 7435,
      "royal": 7436,
      "Michigan": 7437,
      "Harvard": 7438,
      "izz": 7439,
      "priority": 7440,
      "jur": 7441,
      "productivity": 7442,
      "tobacco": 7443,
      "Given": 7444,
      "favour": 7445,
      "Kids": 7446,
      "marketing": 7447,
      "Alzheim": 7448,
      "characteristic": 7449,
      "exec": 7450,
      "intestinal": 7451,
      "sees": 7452,
      "poetry": 7453,
      "clou": 7454,
      "mage": 7455,
      "GB": 7456,
      "Sunday": 7457,
      "atoms": 7458,
      "dense": 7459,
      "uce": 7460,
      "stopped": 7461,
      "hunting": 7462,
      "ux": 7463,
      "remarkable": 7464,
      "Islamic": 7465,
      "believes": 7466,
      "occupied": 7467,
      "anch": 7468,
      "idal": 7469,
      "irrig": 7470,
      "teles": 7471,
      "sad": 7472,
      "Ice": 7473,
      "client": 7474,
      "fiction": 7475,
      "Loc": 7476,
      "Ask": 7477,
      "coat": 7478,
      "eful": 7479,
      "ease": 7480,
      "fund": 7481,
      "fought": 7482,
      "Small": 7483,
      "Process": 7484,
      "quarters": 7485,
      "Still": 7486,
      "kelet": 7487,
      "promoting": 7488,
      "profile": 7489,
      "trick": 7490,
      "flexible": 7491,
      "wisdom": 7492,
      "colored": 7493,
      "endment": 7494,
      "solved": 7495,
      "argue": 7496,
      "prey": 7497,
      "harder": 7498,
      "alive": 7499,
      "Mexican": 7500,
      "lowest": 7501,
      "argued": 7502,
      "initiative": 7503,
      "Music": 7504,
      "erup": 7505,
      "Put": 7506,
      "Ok": 7507,
      "rics": 7508,
      "promised": 7509,
      "Islands": 7510,
      "Hawai": 7511,
      "Indon": 7512,
      "panic": 7513,
      "reverse": 7514,
      "empty": 7515,
      "stein": 7516,
      "GE": 7517,
      "Isa": 7518,
      "permission": 7519,
      "Section": 7520,
      "ums": 7521,
      "Indones": 7522,
      "acre": 7523,
      "Code": 7524,
      "colonies": 7525,
      "Los": 7526,
      "fats": 7527,
      "urated": 7528,
      "assembl": 7529,
      "societies": 7530,
      "span": 7531,
      "bless": 7532,
      "documented": 7533,
      "interface": 7534,
      "una": 7535,
      "prem": 7536,
      "engaging": 7537,
      "surgical": 7538,
      "physically": 7539,
      "equation": 7540,
      "Na": 7541,
      "Hebrew": 7542,
      "oste": 7543,
      "fatal": 7544,
      "ori": 7545,
      "Chang": 7546,
      "parameters": 7547,
      "directions": 7548,
      "wonderful": 7549,
      "determining": 7550,
      "expanded": 7551,
      "rows": 7552,
      "Jac": 7553,
      "ko": 7554,
      "script": 7555,
      "odies": 7556,
      "Prim": 7557,
      "yr": 7558,
      "tics": 7559,
      "Gulf": 7560,
      "gel": 7561,
      "grains": 7562,
      "Proble": 7563,
      "spoken": 7564,
      "genome": 7565,
      "Fall": 7566,
      "Physical": 7567,
      "exploration": 7568,
      "ometers": 7569,
      "emerging": 7570,
      "sodium": 7571,
      "preferred": 7572,
      "container": 7573,
      "neys": 7574,
      "interview": 7575,
      "spatial": 7576,
      "LD": 7577,
      "towns": 7578,
      "kings": 7579,
      "sentences": 7580,
      "arguments": 7581,
      "metals": 7582,
      "bol": 7583,
      "ritual": 7584,
      "kit": 7585,
      "otal": 7586,
      "glac": 7587,
      "shops": 7588,
      "trauma": 7589,
      "cler": 7590,
      "waiting": 7591,
      "vegetation": 7592,
      "infants": 7593,
      "Liber": 7594,
      "trail": 7595,
      "burden": 7596,
      "districts": 7597,
      "parad": 7598,
      "Crit": 7599,
      "sover": 7600,
      "investigate": 7601,
      "label": 7602,
      "itz": 7603,
      "approv": 7604,
      "raising": 7605,
      "rection": 7606,
      "evening": 7607,
      "Within": 7608,
      "eras": 7609,
      "elsewhere": 7610,
      "quiet": 7611,
      "assembly": 7612,
      "shire": 7613,
      "Support": 7614,
      "coc": 7615,
      "portions": 7616,
      "urches": 7617,
      "Often": 7618,
      "sized": 7619,
      "drivers": 7620,
      "acceptable": 7621,
      "luck": 7622,
      "Farm": 7623,
      "rix": 7624,
      "didn't": 7625,
      "rhyth": 7626,
      "pdf": 7627,
      "requirement": 7628,
      "losses": 7629,
      "saved": 7630,
      "Matthew": 7631,
      "descript": 7632,
      "literally": 7633,
      "Ros": 7634,
      "weed": 7635,
      "Between": 7636,
      "Alexander": 7637,
      "adapted": 7638,
      "tribes": 7639,
      "finish": 7640,
      "Ency": 7641,
      "morph": 7642,
      "arise": 7643,
      "lav": 7644,
      "Understanding": 7645,
      "placement": 7646,
      "Es": 7647,
      "herb": 7648,
      "Image": 7649,
      "trace": 7650,
      "cellular": 7651,
      "DR": 7652,
      "Watch": 7653,
      "chromo": 7654,
      "spinal": 7655,
      "isn't": 7656,
      "expectations": 7657,
      "Bes": 7658,
      "Major": 7659,
      "safely": 7660,
      "hormones": 7661,
      "threatened": 7662,
      "establishment": 7663,
      "Town": 7664,
      "sym": 7665,
      "extension": 7666,
      "reviewed": 7667,
      "awa": 7668,
      "exhibit": 7669,
      "teor": 7670,
      "capabilities": 7671,
      "EV": 7672,
      "haven": 7673,
      "iva": 7674,
      "Systems": 7675,
      "hill": 7676,
      "gotten": 7677,
      "preserve": 7678,
      "attitude": 7679,
      "Issu": 7680,
      "amine": 7681,
      "vine": 7682,
      "endanger": 7683,
      "entering": 7684,
      "umping": 7685,
      "circulation": 7686,
      "Media": 7687,
      "movie": 7688,
      "ptions": 7689,
      "entertain": 7690,
      "cue": 7691,
      "Imp": 7692,
      "removing": 7693,
      "interior": 7694,
      "equality": 7695,
      "Spec": 7696,
      "Wildlife": 7697,
      "carri": 7698,
      "Sust": 7699,
      "adder": 7700,
      "Symptoms": 7701,
      "Him": 7702,
      "aded": 7703,
      "rior": 7704,
      "households": 7705,
      "ti": 7706,
      "joints": 7707,
      "Imag": 7708,
      "Kr": 7709,
      "opposition": 7710,
      "bearing": 7711,
      "legit": 7712,
      "Examples": 7713,
      "Cree": 7714,
      "feels": 7715,
      "Economic": 7716,
      "spray": 7717,
      "relate": 7718,
      "Mount": 7719,
      "eros": 7720,
      "aggressive": 7721,
      "Copyright": 7722,
      "digestive": 7723,
      "hr": 7724,
      "Chris": 7725,
      "peer": 7726,
      "Comple": 7727,
      "wider": 7728,
      "companied": 7729,
      "varian": 7730,
      "sustainability": 7731,
      "prospect": 7732,
      "deeply": 7733,
      "orange": 7734,
      "contributions": 7735,
      "strike": 7736,
      "eness": 7737,
      "converted": 7738,
      "rant": 7739,
      "agan": 7740,
      "Offic": 7741,
      "painful": 7742,
      "vertebr": 7743,
      "streets": 7744,
      "Agriculture": 7745,
      "Laboratory": 7746,
      "todayâĢĻs": 7747,
      "enterpr": 7748,
      "corresponding": 7749,
      "CF": 7750,
      "Tal": 7751,
      "realized": 7752,
      "Cub": 7753,
      "celebrated": 7754,
      "wasnâĢĻt": 7755,
      "committee": 7756,
      "Fil": 7757,
      "Short": 7758,
      "handling": 7759,
      "summar": 7760,
      "Francisco": 7761,
      "websites": 7762,
      "Self": 7763,
      "tough": 7764,
      "continent": 7765,
      "officer": 7766,
      "Var": 7767,
      "ette": 7768,
      "afts": 7769,
      "sessions": 7770,
      "cart": 7771,
      "addiction": 7772,
      "tone": 7773,
      "Should": 7774,
      "FDA": 7775,
      "Material": 7776,
      "ups": 7777,
      "html": 7778,
      "thread": 7779,
      "Chief": 7780,
      "happiness": 7781,
      "paying": 7782,
      "iah": 7783,
      "synthetic": 7784,
      "Master": 7785,
      "adel": 7786,
      "versus": 7787,
      "targeted": 7788,
      "Andrew": 7789,
      "inosa": 7790,
      "holiday": 7791,
      "Bang": 7792,
      "assumed": 7793,
      "rib": 7794,
      "convin": 7795,
      "fulness": 7796,
      "pilot": 7797,
      "loose": 7798,
      "hygi": 7799,
      "wer": 7800,
      "engines": 7801,
      "accompanied": 7802,
      "nutritional": 7803,
      "applying": 7804,
      "Temple": 7805,
      "fant": 7806,
      "provin": 7807,
      "Arts": 7808,
      "creatures": 7809,
      "bullying": 7810,
      "nab": 7811,
      "drinks": 7812,
      "universities": 7813,
      "Historical": 7814,
      "amination": 7815,
      "astronom": 7816,
      "Cast": 7817,
      "minds": 7818,
      "Century": 7819,
      "anticip": 7820,
      "executive": 7821,
      "PE": 7822,
      "devast": 7823,
      "doctr": 7824,
      "courts": 7825,
      "coding": 7826,
      "juice": 7827,
      "infant": 7828,
      "sculpt": 7829,
      "differently": 7830,
      "vig": 7831,
      "enna": 7832,
      "foster": 7833,
      "references": 7834,
      "cough": 7835,
      "Best": 7836,
      "rence": 7837,
      "Stan": 7838,
      "attribut": 7839,
      "boards": 7840,
      "kel": 7841,
      "prevalence": 7842,
      "mouse": 7843,
      "reign": 7844,
      "province": 7845,
      "insights": 7846,
      "restricted": 7847,
      "cooperation": 7848,
      "wearing": 7849,
      "axis": 7850,
      "medicines": 7851,
      "consuming": 7852,
      "Emer": 7853,
      "scenario": 7854,
      "inn": 7855,
      "Amazon": 7856,
      "cited": 7857,
      "Week": 7858,
      "lifetime": 7859,
      "Standard": 7860,
      "ammals": 7861,
      "pip": 7862,
      "Wis": 7863,
      "Bol": 7864,
      "enormous": 7865,
      "LED": 7866,
      "Local": 7867,
      "controlling": 7868,
      "ecosystems": 7869,
      "WHO": 7870,
      "shed": 7871,
      "guess": 7872,
      "Interest": 7873,
      "continuing": 7874,
      "Palest": 7875,
      "payment": 7876,
      "Wikipedia": 7877,
      "dynamics": 7878,
      "trem": 7879,
      "dess": 7880,
      "barriers": 7881,
      "outbreak": 7882,
      "ThereâĢĻs": 7883,
      "aming": 7884,
      "marg": 7885,
      "clothes": 7886,
      "Pu": 7887,
      "reef": 7888,
      "attitudes": 7889,
      "Mas": 7890,
      "Indigenous": 7891,
      "habitats": 7892,
      "Lev": 7893,
      "existed": 7894,
      "Hard": 7895,
      "pm": 7896,
      "analog": 7897,
      "gging": 7898,
      "classic": 7899,
      "cheap": 7900,
      "dairy": 7901,
      "perceived": 7902,
      "abstract": 7903,
      "Son": 7904,
      "bears": 7905,
      "aints": 7906,
      "cule": 7907,
      "posts": 7908,
      "emerged": 7909,
      "optimal": 7910,
      "fre": 7911,
      "manual": 7912,
      "transmitted": 7913,
      "Abraham": 7914,
      "ee": 7915,
      "amps": 7916,
      "Incl": 7917,
      "angles": 7918,
      "collective": 7919,
      "Chem": 7920,
      "restaur": 7921,
      "campus": 7922,
      "persu": 7923,
      "biodiversity": 7924,
      "loop": 7925,
      "Exp": 7926,
      "Behavi": 7927,
      "world's": 7928,
      "worthy": 7929,
      "hypothesis": 7930,
      "Similarly": 7931,
      "fertility": 7932,
      "intensive": 7933,
      "municip": 7934,
      "scheme": 7935,
      "dil": 7936,
      "iop": 7937,
      "convert": 7938,
      "march": 7939,
      "Much": 7940,
      "politic": 7941,
      "Princi": 7942,
      "Daniel": 7943,
      "facilitate": 7944,
      "mentary": 7945,
      "distinguish": 7946,
      "ji": 7947,
      "recover": 7948,
      "fatigue": 7949,
      "complexity": 7950,
      "unlike": 7951,
      "ications": 7952,
      "explicit": 7953,
      "registered": 7954,
      "filling": 7955,
      "secre": 7956,
      "newspaper": 7957,
      "expertise": 7958,
      "kn": 7959,
      "Appro": 7960,
      "doses": 7961,
      "limitations": 7962,
      "finite": 7963,
      "exception": 7964,
      "replacement": 7965,
      "associate": 7966,
      "Third": 7967,
      "ensional": 7968,
      "pione": 7969,
      "heal": 7970,
      "competitive": 7971,
      "IO": 7972,
      "scop": 7973,
      "bare": 7974,
      "currence": 7975,
      "Det": 7976,
      "Map": 7977,
      "bark": 7978,
      "pene": 7979,
      "cub": 7980,
      "uniform": 7981,
      "rod": 7982,
      "ala": 7983,
      "endar": 7984,
      "symbols": 7985,
      "vice": 7986,
      "evolutionary": 7987,
      "privile": 7988,
      "acknowled": 7989,
      "fate": 7990,
      "Poly": 7991,
      "ceans": 7992,
      "Area": 7993,
      "Sustain": 7994,
      "bleeding": 7995,
      "charges": 7996,
      "passes": 7997,
      "Tar": 7998,
      "Navy": 7999,
      "Action": 8000,
      "cycles": 8001,
      "virtually": 8002,
      "Hz": 8003,
      "sters": 8004,
      "closure": 8005,
      "Trust": 8006,
      "turb": 8007,
      "Ira": 8008,
      "gathered": 8009,
      "clients": 8010,
      "partial": 8011,
      "personâĢĻs": 8012,
      "End": 8013,
      "Hence": 8014,
      "myself": 8015,
      "arrang": 8016,
      "Meas": 8017,
      "absorb": 8018,
      "NE": 8019,
      "Friday": 8020,
      "ema": 8021,
      "hospitals": 8022,
      "ais": 8023,
      "Parliament": 8024,
      "gif": 8025,
      "meaningful": 8026,
      "convey": 8027,
      "develops": 8028,
      "immigrants": 8029,
      "workplace": 8030,
      "borrow": 8031,
      "Answ": 8032,
      "Computer": 8033,
      "songs": 8034,
      "mentia": 8035,
      "seriously": 8036,
      "restoration": 8037,
      "welve": 8038,
      "discussions": 8039,
      "Lew": 8040,
      "petition": 8041,
      "izers": 8042,
      "compat": 8043,
      "infer": 8044,
      "personnel": 8045,
      "stood": 8046,
      "analyzed": 8047,
      "desert": 8048,
      "rol": 8049,
      "throat": 8050,
      "unlikely": 8051,
      "basically": 8052,
      "accurately": 8053,
      "assium": 8054,
      "clay": 8055,
      "vegetable": 8056,
      "dropped": 8057,
      "Text": 8058,
      "entit": 8059,
      "verage": 8060,
      "barrier": 8061,
      "illnesses": 8062,
      "TA": 8063,
      "Think": 8064,
      "themes": 8065,
      "shorter": 8066,
      "Introduction": 8067,
      "Bureau": 8068,
      "engagement": 8069,
      "binding": 8070,
      "export": 8071,
      "ski": 8072,
      "minimal": 8073,
      "Hindu": 8074,
      "MB": 8075,
      "Guard": 8076,
      "analyses": 8077,
      "operated": 8078,
      "origins": 8079,
      "Contact": 8080,
      "operative": 8081,
      "ani": 8082,
      "TE": 8083,
      "servers": 8084,
      "Form": 8085,
      "Expl": 8086,
      "alty": 8087,
      "begun": 8088,
      "worms": 8089,
      "avo": 8090,
      "reaches": 8091,
      "calculate": 8092,
      "Origin": 8093,
      "recru": 8094,
      "acted": 8095,
      "bris": 8096,
      "recording": 8097,
      "tomat": 8098,
      "stere": 8099,
      "assignment": 8100,
      "readily": 8101,
      "appeal": 8102,
      "Mess": 8103,
      "chose": 8104,
      "Niger": 8105,
      "restore": 8106,
      "accord": 8107,
      "invention": 8108,
      "Hit": 8109,
      "Blood": 8110,
      "tens": 8111,
      "pod": 8112,
      "welfare": 8113,
      "identical": 8114,
      "strategic": 8115,
      "Paper": 8116,
      "lymp": 8117,
      "Order": 8118,
      "abling": 8119,
      "Show": 8120,
      "apparently": 8121,
      "contaminated": 8122,
      "intim": 8123,
      "spacecraft": 8124,
      "frustr": 8125,
      "diarr": 8126,
      "cuts": 8127,
      "tongue": 8128,
      "reveals": 8129,
      "till": 8130,
      "bene": 8131,
      "pupils": 8132,
      "Bor": 8133,
      "Muslims": 8134,
      "copyright": 8135,
      "esh": 8136,
      "Move": 8137,
      "gregation": 8138,
      "notion": 8139,
      "opinions": 8140,
      "Clean": 8141,
      "conversion": 8142,
      "Ash": 8143,
      "Uk": 8144,
      "discipline": 8145,
      "ultimate": 8146,
      "choosing": 8147,
      "Conference": 8148,
      "specialist": 8149,
      "representative": 8150,
      "Dam": 8151,
      "ifer": 8152,
      "eli": 8153,
      "lyn": 8154,
      "shield": 8155,
      "eu": 8156,
      "influences": 8157,
      "minority": 8158,
      "Dog": 8159,
      "backs": 8160,
      "threatening": 8161,
      "Squ": 8162,
      "prescribed": 8163,
      "livestock": 8164,
      "savings": 8165,
      "Han": 8166,
      "pairs": 8167,
      "everywhere": 8168,
      "Fair": 8169,
      "designated": 8170,
      "absorption": 8171,
      "metabolism": 8172,
      "utic": 8173,
      "Mrs": 8174,
      "Diction": 8175,
      "encounter": 8176,
      "suspect": 8177,
      "NY": 8178,
      "Ow": 8179,
      "pollut": 8180,
      "victory": 8181,
      "soils": 8182,
      "tends": 8183,
      "estate": 8184,
      "fifth": 8185,
      "colony": 8186,
      "Testament": 8187,
      "preserved": 8188,
      "wed": 8189,
      "profound": 8190,
      "perfectly": 8191,
      "Rather": 8192,
      "Number": 8193,
      "whatâĢĻs": 8194,
      "theoretical": 8195,
      "strange": 8196,
      "curve": 8197,
      "âĤ": 8198,
      "sequences": 8199,
      "Rail": 8200,
      "headed": 8201,
      "exploring": 8202,
      "chip": 8203,
      "ilst": 8204,
      "contamination": 8205,
      "honest": 8206,
      "mits": 8207,
      "Pet": 8208,
      "returns": 8209,
      "encoun": 8210,
      "Obama": 8211,
      "Hur": 8212,
      "bron": 8213,
      "ensed": 8214,
      "amino": 8215,
      "varied": 8216,
      "bias": 8217,
      "equipped": 8218,
      "LA": 8219,
      "Mind": 8220,
      "outdoor": 8221,
      "prime": 8222,
      "counts": 8223,
      "Making": 8224,
      "Wed": 8225,
      "photographs": 8226,
      "Creek": 8227,
      "separation": 8228,
      "aws": 8229,
      "inois": 8230,
      "izona": 8231,
      "purchased": 8232,
      "worker": 8233,
      "sciences": 8234,
      "mond": 8235,
      "Olymp": 8236,
      "Hom": 8237,
      "specialized": 8238,
      "optical": 8239,
      "nas": 8240,
      "colate": 8241,
      "sheep": 8242,
      "accomplish": 8243,
      "magnitude": 8244,
      "ja": 8245,
      "soy": 8246,
      "stig": 8247,
      "Working": 8248,
      "opa": 8249,
      "embed": 8250,
      "privacy": 8251,
      "hea": 8252,
      "Print": 8253,
      "predicted": 8254,
      "Others": 8255,
      "junction": 8256,
      "rison": 8257,
      "Alaska": 8258,
      "promising": 8259,
      "Bon": 8260,
      "avirus": 8261,
      "globe": 8262,
      "ackson": 8263,
      "displayed": 8264,
      "mam": 8265,
      "ifice": 8266,
      "rainfall": 8267,
      "Santa": 8268,
      "creativity": 8269,
      "prayer": 8270,
      "oh": 8271,
      "Line": 8272,
      "bought": 8273,
      "eign": 8274,
      "buying": 8275,
      "gift": 8276,
      "Sud": 8277,
      "paste": 8278,
      "circul": 8279,
      "reflected": 8280,
      "celebrate": 8281,
      "involvement": 8282,
      "Gall": 8283,
      "Monday": 8284,
      "codes": 8285,
      "developments": 8286,
      "puts": 8287,
      "ranean": 8288,
      "stell": 8289,
      "Import": 8290,
      "Ren": 8291,
      "Lad": 8292,
      "raid": 8293,
      "fluor": 8294,
      "thane": 8295,
      "ownership": 8296,
      "disc": 8297,
      "council": 8298,
      "hybrid": 8299,
      "Aud": 8300,
      "tag": 8301,
      "specified": 8302,
      "PhD": 8303,
      "quantities": 8304,
      "onaut": 8305,
      "developmental": 8306,
      "clinic": 8307,
      "Teaching": 8308,
      "Arizona": 8309,
      "Iraq": 8310,
      "utter": 8311,
      "indirect": 8312,
      "Flu": 8313,
      "managers": 8314,
      "Schools": 8315,
      "contributing": 8316,
      "canal": 8317,
      "advances": 8318,
      "Tre": 8319,
      "fraction": 8320,
      "Cost": 8321,
      "veloc": 8322,
      "Ra": 8323,
      "mammals": 8324,
      "Â®": 8325,
      "nursing": 8326,
      "isations": 8327,
      "itable": 8328,
      "Essay": 8329,
      "visiting": 8330,
      "representing": 8331,
      "puzz": 8332,
      "inspe": 8333,
      "enthus": 8334,
      "aceful": 8335,
      "Secretary": 8336,
      "orate": 8337,
      "cutive": 8338,
      "oblig": 8339,
      "Microsoft": 8340,
      "heaven": 8341,
      "preparing": 8342,
      "Individual": 8343,
      "exem": 8344,
      "peopleâĢĻs": 8345,
      "itchen": 8346,
      "enzyme": 8347,
      "Turk": 8348,
      "issance": 8349,
      "Select": 8350,
      "washing": 8351,
      "VI": 8352,
      "withdraw": 8353,
      "issip": 8354,
      "Brain": 8355,
      "algorithm": 8356,
      "anthrop": 8357,
      "bands": 8358,
      "crack": 8359,
      "possibilities": 8360,
      "regime": 8361,
      "Six": 8362,
      "volunteers": 8363,
      "restrictions": 8364,
      "onset": 8365,
      "practition": 8366,
      "endangered": 8367,
      "cyto": 8368,
      "requiring": 8369,
      "Turn": 8370,
      "eigh": 8371,
      "sale": 8372,
      "loads": 8373,
      "apple": 8374,
      "ADHD": 8375,
      "conflicts": 8376,
      "susceptible": 8377,
      "teens": 8378,
      "chap": 8379,
      "Williams": 8380,
      "attractive": 8381,
      "Different": 8382,
      "appointment": 8383,
      "Moses": 8384,
      "educated": 8385,
      "countryâĢĻs": 8386,
      "enzymes": 8387,
      "reproductive": 8388,
      "cable": 8389,
      "Apple": 8390,
      "transferred": 8391,
      "accounting": 8392,
      "economics": 8393,
      "churches": 8394,
      "strains": 8395,
      "gardens": 8396,
      "emia": 8397,
      "bladder": 8398,
      "Illinois": 8399,
      "loaded": 8400,
      "regulate": 8401,
      "infectious": 8402,
      "edu": 8403,
      "ros": 8404,
      "counting": 8405,
      "permit": 8406,
      "toxins": 8407,
      "utility": 8408,
      "employee": 8409,
      "calm": 8410,
      "statistical": 8411,
      "divide": 8412,
      "Biology": 8413,
      "Jackson": 8414,
      "Sus": 8415,
      "los": 8416,
      "pir": 8417,
      "Ass": 8418,
      "varying": 8419,
      "suicide": 8420,
      "patri": 8421,
      "particle": 8422,
      "founder": 8423,
      "Marine": 8424,
      "ila": 8425,
      "ordination": 8426,
      "inflation": 8427,
      "Mississip": 8428,
      "Practice": 8429,
      "plast": 8430,
      "juris": 8431,
      "wart": 8432,
      "underground": 8433,
      "enhanced": 8434,
      "info": 8435,
      "tracking": 8436,
      "discharge": 8437,
      "ride": 8438,
      "zones": 8439,
      "Ã±": 8440,
      "visits": 8441,
      "Product": 8442,
      "paintings": 8443,
      "candidate": 8444,
      "Write": 8445,
      "Real": 8446,
      "Bot": 8447,
      "Sem": 8448,
      "surprise": 8449,
      "spoke": 8450,
      "minimize": 8451,
      "corporate": 8452,
      "sacred": 8453,
      "adelph": 8454,
      "gran": 8455,
      "lean": 8456,
      "Relig": 8457,
      "addresses": 8458,
      "scatter": 8459,
      "thur": 8460,
      "establishing": 8461,
      "ruled": 8462,
      "fascinating": 8463,
      "contents": 8464,
      "channels": 8465,
      "addressing": 8466,
      "Cas": 8467,
      "bite": 8468,
      "xy": 8469,
      "preneur": 8470,
      "sister": 8471,
      "diets": 8472,
      "attributed": 8473,
      "annually": 8474,
      "Aut": 8475,
      "cia": 8476,
      "radi": 8477,
      "amongst": 8478,
      "Sof": 8479,
      "faculty": 8480,
      "este": 8481,
      "seiz": 8482,
      "gradu": 8483,
      "overview": 8484,
      "spreading": 8485,
      "burned": 8486,
      "Dictionary": 8487,
      "Search": 8488,
      "popularity": 8489,
      "Heritage": 8490,
      "Oreg": 8491,
      "noon": 8492,
      "collections": 8493,
      "beam": 8494,
      "descend": 8495,
      "swelling": 8496,
      "saturated": 8497,
      "medieval": 8498,
      "Dun": 8499,
      "sleeping": 8500,
      "stag": 8501,
      "incorporated": 8502,
      "manus": 8503,
      "herself": 8504,
      "Ministry": 8505,
      "uran": 8506,
      "Korean": 8507,
      "static": 8508,
      "villages": 8509,
      "Scientific": 8510,
      "neurons": 8511,
      "memor": 8512,
      "isolation": 8513,
      "bonds": 8514,
      "impair": 8515,
      "Philadelph": 8516,
      "Teachers": 8517,
      "horizontal": 8518,
      "Kent": 8519,
      "Pain": 8520,
      "omal": 8521,
      "scales": 8522,
      "gods": 8523,
      "ranges": 8524,
      "conqu": 8525,
      "metabolic": 8526,
      "encry": 8527,
      "wings": 8528,
      "voir": 8529,
      "deer": 8530,
      "awn": 8531,
      "flexibility": 8532,
      "orientation": 8533,
      "surveys": 8534,
      "adopt": 8535,
      "loan": 8536,
      "Ag": 8537,
      "dried": 8538,
      "neglect": 8539,
      "convenient": 8540,
      "tan": 8541,
      "Ukrain": 8542,
      "Ã¤": 8543,
      "mart": 8544,
      "Jacob": 8545,
      "Prop": 8546,
      "electrons": 8547,
      "democratic": 8548,
      "knee": 8549,
      "Station": 8550,
      "severity": 8551,
      "divine": 8552,
      "Grad": 8553,
      "WW": 8554,
      "earn": 8555,
      "revenue": 8556,
      "sons": 8557,
      "Kin": 8558,
      "streams": 8559,
      "motivation": 8560,
      "drag": 8561,
      "Clinical": 8562,
      "beneath": 8563,
      "weâĢĻve": 8564,
      "locate": 8565,
      "influenza": 8566,
      "Student": 8567,
      "simultaneously": 8568,
      "Diet": 8569,
      "eleph": 8570,
      "Greece": 8571,
      "worm": 8572,
      "nesium": 8573,
      "deser": 8574,
      "initiatives": 8575,
      "swimming": 8576,
      "mediate": 8577,
      "encouraging": 8578,
      "Convention": 8579,
      "âĪĴ": 8580,
      "lakes": 8581,
      "desir": 8582,
      "efficiently": 8583,
      "suggesting": 8584,
      "sheets": 8585,
      "sectors": 8586,
      "trave": 8587,
      "audi": 8588,
      "Ancient": 8589,
      "gments": 8590,
      "suddenly": 8591,
      "Assessment": 8592,
      "Has": 8593,
      "apps": 8594,
      "Name": 8595,
      "invented": 8596,
      "spel": 8597,
      "treas": 8598,
      "STEM": 8599,
      "bags": 8600,
      "approval": 8601,
      "applies": 8602,
      "dimin": 8603,
      "asser": 8604,
      "letâĢĻs": 8605,
      "distant": 8606,
      "lore": 8607,
      "Altern": 8608,
      "Antar": 8609,
      "sle": 8610,
      "rip": 8611,
      "alarm": 8612,
      "aside": 8613,
      "kespe": 8614,
      "AF": 8615,
      "merch": 8616,
      "Pyth": 8617,
      "hepat": 8618,
      "relating": 8619,
      "instances": 8620,
      "prosper": 8621,
      "ika": 8622,
      "vaccination": 8623,
      "subsid": 8624,
      "Ti": 8625,
      "worn": 8626,
      "invasion": 8627,
      "bage": 8628,
      "obst": 8629,
      "Wilson": 8630,
      "icular": 8631,
      "enjoyed": 8632,
      "TB": 8633,
      "coli": 8634,
      "healthier": 8635,
      "elementary": 8636,
      "Ban": 8637,
      "Berlin": 8638,
      "RF": 8639,
      "peers": 8640,
      "judgment": 8641,
      "copies": 8642,
      "fitness": 8643,
      "hier": 8644,
      "bub": 8645,
      "dimensions": 8646,
      "Rh": 8647,
      "translated": 8648,
      "Avail": 8649,
      "inhabitants": 8650,
      "TP": 8651,
      "Produ": 8652,
      "Turkey": 8653,
      "ancestors": 8654,
      "Oregon": 8655,
      "Philadelphia": 8656,
      "alongside": 8657,
      "Cs": 8658,
      "cave": 8659,
      "sending": 8660,
      "therape": 8661,
      "aka": 8662,
      "Univers": 8663,
      "reserved": 8664,
      "Nov": 8665,
      "valve": 8666,
      "package": 8667,
      "Tay": 8668,
      "tumors": 8669,
      "CM": 8670,
      "hygiene": 8671,
      "gart": 8672,
      "Nic": 8673,
      "achieving": 8674,
      "Mississippi": 8675,
      "dipl": 8676,
      "chicken": 8677,
      "ogens": 8678,
      "systematic": 8679,
      "inevit": 8680,
      "controvers": 8681,
      "abundance": 8682,
      "Parents": 8683,
      "refused": 8684,
      "stabil": 8685,
      "robust": 8686,
      "HR": 8687,
      "plug": 8688,
      "structured": 8689,
      "Hot": 8690,
      "Fri": 8691,
      "classification": 8692,
      "femin": 8693,
      "winning": 8694,
      "enda": 8695,
      "constitutional": 8696,
      "totally": 8697,
      "cream": 8698,
      "chamber": 8699,
      "dimensional": 8700,
      "hen": 8701,
      "forcing": 8702,
      "plasma": 8703,
      "sediment": 8704,
      "attended": 8705,
      "Event": 8706,
      "dd": 8707,
      "mutations": 8708,
      "DE": 8709,
      "they're": 8710,
      "producers": 8711,
      "elderly": 8712,
      "kespeare": 8713,
      "Nevertheless": 8714,
      "Besides": 8715,
      "ulating": 8716,
      "deposits": 8717,
      "abundant": 8718,
      "regulatory": 8719,
      "Adam": 8720,
      "broke": 8721,
      "tempt": 8722,
      "cluster": 8723,
      "Encyclopedia": 8724,
      "welcome": 8725,
      "attempted": 8726,
      "hopes": 8727,
      "wake": 8728,
      "ricane": 8729,
      "olds": 8730,
      "combine": 8731,
      "winds": 8732,
      "Questions": 8733,
      "debris": 8734,
      "etary": 8735,
      "cock": 8736,
      "phon": 8737,
      "Below": 8738,
      "algorithms": 8739,
      "Angeles": 8740,
      "meetings": 8741,
      "hurt": 8742,
      "provision": 8743,
      "aternal": 8744,
      "uan": 8745,
      "guns": 8746,
      "Ðµ": 8747,
      "flux": 8748,
      "Future": 8749,
      "GS": 8750,
      "faction": 8751,
      "imply": 8752,
      "enforcement": 8753,
      "absolutely": 8754,
      "Jim": 8755,
      "reflects": 8756,
      "painted": 8757,
      "Mun": 8758,
      "molecule": 8759,
      "platforms": 8760,
      "Cred": 8761,
      "earthquake": 8762,
      "Doc": 8763,
      "ortion": 8764,
      "Need": 8765,
      "inth": 8766,
      "legend": 8767,
      "installation": 8768,
      "Daily": 8769,
      "resembl": 8770,
      "iry": 8771,
      "default": 8772,
      "organism": 8773,
      "obic": 8774,
      "sensory": 8775,
      "alternatives": 8776,
      "irrigation": 8777,
      "Nur": 8778,
      "Prom": 8779,
      "brains": 8780,
      "whenever": 8781,
      "bottle": 8782,
      "dramatically": 8783,
      "residential": 8784,
      "magazine": 8785,
      "gray": 8786,
      "cession": 8787,
      "there's": 8788,
      "lan": 8789,
      "demo": 8790,
      "icking": 8791,
      "appl": 8792,
      "deem": 8793,
      "consequence": 8794,
      "Cape": 8795,
      "porters": 8796,
      "theli": 8797,
      "Enter": 8798,
      "Proper": 8799,
      "womenâĢĻs": 8800,
      "engineer": 8801,
      "clouds": 8802,
      "Kansas": 8803,
      "Ten": 8804,
      "proposal": 8805,
      "atomic": 8806,
      "prevents": 8807,
      "oils": 8808,
      "incorporate": 8809,
      "grammar": 8810,
      "reflection": 8811,
      "shoes": 8812,
      "That's": 8813,
      "storms": 8814,
      "civilization": 8815,
      "mistakes": 8816,
      "Tel": 8817,
      "tendency": 8818,
      "lun": 8819,
      "officially": 8820,
      "Diag": 8821,
      "malaria": 8822,
      "Carib": 8823,
      "Typ": 8824,
      "Iron": 8825,
      "consent": 8826,
      "expanding": 8827,
      "abandoned": 8828,
      "ilder": 8829,
      "minister": 8830,
      "tower": 8831,
      "Risk": 8832,
      "crown": 8833,
      "weld": 8834,
      "holy": 8835,
      "precisely": 8836,
      "lift": 8837,
      "verbal": 8838,
      "homework": 8839,
      "qualified": 8840,
      "connecting": 8841,
      "Os": 8842,
      "omatic": 8843,
      "diagnostic": 8844,
      "prone": 8845,
      "confusion": 8846,
      "occasionally": 8847,
      "dementia": 8848,
      "Story": 8849,
      "posted": 8850,
      "Senate": 8851,
      "Animal": 8852,
      "adesh": 8853,
      "repeat": 8854,
      "pole": 8855,
      "crypto": 8856,
      "oceans": 8857,
      "Commons": 8858,
      "diver": 8859,
      "segment": 8860,
      "Rab": 8861,
      "Nap": 8862,
      "lining": 8863,
      "ested": 8864,
      "esop": 8865,
      "entre": 8866,
      "slip": 8867,
      "wars": 8868,
      "missed": 8869,
      "Maryland": 8870,
      "None": 8871,
      "ni": 8872,
      "collapse": 8873,
      "eman": 8874,
      "wooden": 8875,
      "neighb": 8876,
      "transformation": 8877,
      "GP": 8878,
      "Kim": 8879,
      "uum": 8880,
      "compos": 8881,
      "determination": 8882,
      "dentist": 8883,
      "bec": 8884,
      "surviv": 8885,
      "iterranean": 8886,
      "Create": 8887,
      "altit": 8888,
      "umber": 8889,
      "evaluated": 8890,
      "Gir": 8891,
      "predators": 8892,
      "rolled": 8893,
      "entitled": 8894,
      "Nether": 8895,
      "enrich": 8896,
      "gian": 8897,
      "metric": 8898,
      "Jones": 8899,
      "schedul": 8900,
      "iblical": 8901,
      "improves": 8902,
      "estone": 8903,
      "atmospheric": 8904,
      "Meanwhile": 8905,
      "Living": 8906,
      "pne": 8907,
      "elections": 8908,
      "uding": 8909,
      "Ms": 8910,
      "arrival": 8911,
      "thank": 8912,
      "generating": 8913,
      "boxes": 8914,
      "dule": 8915,
      "responsibilities": 8916,
      "survived": 8917,
      "gon": 8918,
      "Death": 8919,
      "cripts": 8920,
      "pressing": 8921,
      "module": 8922,
      "Training": 8923,
      "surrounded": 8924,
      "occupation": 8925,
      "you'll": 8926,
      "oriented": 8927,
      "pond": 8928,
      "accidents": 8929,
      "weekly": 8930,
      "Oct": 8931,
      "Hon": 8932,
      "utilized": 8933,
      "Mediterranean": 8934,
      "pep": 8935,
      "peas": 8936,
      "cribe": 8937,
      "certific": 8938,
      "FOR": 8939,
      "Ide": 8940,
      "Î±": 8941,
      "iner": 8942,
      "authentic": 8943,
      "oked": 8944,
      "dip": 8945,
      "injured": 8946,
      "Benef": 8947,
      "prolong": 8948,
      "Dem": 8949,
      "HereâĢĻs": 8950,
      "ART": 8951,
      "Ell": 8952,
      "mobility": 8953,
      "camps": 8954,
      "modeling": 8955,
      "Object": 8956,
      "Grade": 8957,
      "dying": 8958,
      "poet": 8959,
      "Twit": 8960,
      "eaten": 8961,
      "Jefferson": 8962,
      "pent": 8963,
      "tape": 8964,
      "sug": 8965,
      "stretch": 8966,
      "Ð¾": 8967,
      "neural": 8968,
      "urable": 8969,
      "Geo": 8970,
      "realistic": 8971,
      "register": 8972,
      "grave": 8973,
      "Jr": 8974,
      "lingu": 8975,
      "Fac": 8976,
      "likelihood": 8977,
      "pleasure": 8978,
      "tolerance": 8979,
      "negoti": 8980,
      "guarantee": 8981,
      "loud": 8982,
      "IB": 8983,
      "elevated": 8984,
      "Otto": 8985,
      "vom": 8986,
      "prints": 8987,
      "tab": 8988,
      "potassium": 8989,
      "Nep": 8990,
      "partly": 8991,
      "Lewis": 8992,
      "Sleep": 8993,
      "consistently": 8994,
      "GR": 8995,
      "enabled": 8996,
      "beach": 8997,
      "Unit": 8998,
      "casting": 8999,
      "diam": 9000,
      "Cla": 9001,
      "tanks": 9002,
      "Vide": 9003,
      "GA": 9004,
      "sail": 9005,
      "Ni": 9006,
      "memories": 9007,
      "Tan": 9008,
      "Garden": 9009,
      "Culture": 9010,
      "guided": 9011,
      "deliber": 9012,
      "excited": 9013,
      "finance": 9014,
      "developers": 9015,
      "stems": 9016,
      "socio": 9017,
      "duties": 9018,
      "asks": 9019,
      "det": 9020,
      "Theory": 9021,
      "ouri": 9022,
      "Full": 9023,
      "Tele": 9024,
      "ghan": 9025,
      "cloth": 9026,
      "consisting": 9027,
      "suggestions": 9028,
      "Log": 9029,
      "Twitter": 9030,
      "Corpor": 9031,
      "accessed": 9032,
      "punishment": 9033,
      "Large": 9034,
      "Indonesia": 9035,
      "Date": 9036,
      "caf": 9037,
      "bodyâĢĻs": 9038,
      "pesticides": 9039,
      "Cit": 9040,
      "kitchen": 9041,
      "broader": 9042,
      "Integr": 9043,
      "alumin": 9044,
      "ifier": 9045,
      "empire": 9046,
      "ocy": 9047,
      "unning": 9048,
      "landing": 9049,
      "Ð°": 9050,
      "utical": 9051,
      "monthly": 9052,
      "Pope": 9053,
      "pale": 9054,
      "semi": 9055,
      "mounted": 9056,
      "altered": 9057,
      "containers": 9058,
      "dominated": 9059,
      "Patients": 9060,
      "imagination": 9061,
      "erosion": 9062,
      "rick": 9063,
      "Tech": 9064,
      "PH": 9065,
      "Wales": 9066,
      "Cut": 9067,
      "nu": 9068,
      "speeds": 9069,
      "engers": 9070,
      "avoiding": 9071,
      "edges": 9072,
      "absorbed": 9073,
      "boo": 9074,
      "candidates": 9075,
      "velocity": 9076,
      "adoption": 9077,
      "ologic": 9078,
      "ethics": 9079,
      "LS": 9080,
      "alo": 9081,
      "distinction": 9082,
      "striking": 9083,
      "desk": 9084,
      "igible": 9085,
      "etically": 9086,
      "displays": 9087,
      "Volume": 9088,
      "shelter": 9089,
      "fibers": 9090,
      "Trade": 9091,
      "thanol": 9092,
      "outline": 9093,
      "Command": 9094,
      "Certain": 9095,
      "Egyptian": 9096,
      "Ø§": 9097,
      "drops": 9098,
      "speaker": 9099,
      "beet": 9100,
      "pend": 9101,
      "desirable": 9102,
      "Bush": 9103,
      "Bit": 9104,
      "angular": 9105,
      "arranged": 9106,
      "exhibition": 9107,
      "owing": 9108,
      "harsh": 9109,
      "Luther": 9110,
      "password": 9111,
      "assessed": 9112,
      "Je": 9113,
      "prescription": 9114,
      "Defin": 9115,
      "imperial": 9116,
      "assistant": 9117,
      "sovereign": 9118,
      "implementing": 9119,
      "Der": 9120,
      "trading": 9121,
      "administered": 9122,
      "heter": 9123,
      "caust": 9124,
      "Electric": 9125,
      "velength": 9126,
      "struck": 9127,
      "reasoning": 9128,
      "attacked": 9129,
      "wick": 9130,
      "antibodies": 9131,
      "affordable": 9132,
      "Hay": 9133,
      "Nutrition": 9134,
      "reputation": 9135,
      "boundary": 9136,
      "jacent": 9137,
      "retail": 9138,
      "Diabetes": 9139,
      "ologically": 9140,
      "liberal": 9141,
      "feather": 9142,
      "Jun": 9143,
      "bay": 9144,
      "entrance": 9145,
      "Sab": 9146,
      "proud": 9147,
      "spine": 9148,
      "Davis": 9149,
      "Pi": 9150,
      "shares": 9151,
      "Case": 9152,
      "parks": 9153,
      "imental": 9154,
      "conclusions": 9155,
      "oming": 9156,
      "shoulder": 9157,
      "graphics": 9158,
      "Walk": 9159,
      "integrity": 9160,
      "municipal": 9161,
      "Pos": 9162,
      "ometer": 9163,
      "partially": 9164,
      "Exerc": 9165,
      "describing": 9166,
      "aes": 9167,
      "Priv": 9168,
      "aspir": 9169,
      "explored": 9170,
      "ogenic": 9171,
      "Ã¨": 9172,
      "emission": 9173,
      "ffer": 9174,
      "Jack": 9175,
      "Arthur": 9176,
      "Five": 9177,
      "firms": 9178,
      "ckets": 9179,
      "nodes": 9180,
      "distress": 9181,
      "Â»": 9182,
      "drives": 9183,
      "prevented": 9184,
      "Quality": 9185,
      "cheese": 9186,
      "UL": 9187,
      "cad": 9188,
      "immunity": 9189,
      "poster": 9190,
      "Bell": 9191,
      "Auto": 9192,
      "allergic": 9193,
      "pink": 9194,
      "Chall": 9195,
      "speakers": 9196,
      "chocolate": 9197,
      "vag": 9198,
      "Samuel": 9199,
      "athletes": 9200,
      "isons": 9201,
      "collecting": 9202,
      "respective": 9203,
      "Currently": 9204,
      "mines": 9205,
      "mont": 9206,
      "itar": 9207,
      "portray": 9208,
      "Stone": 9209,
      "adolescents": 9210,
      "elab": 9211,
      "distances": 9212,
      "crush": 9213,
      "injection": 9214,
      "chon": 9215,
      "thirty": 9216,
      "lon": 9217,
      "flavor": 9218,
      "Nation": 9219,
      "hide": 9220,
      "indicating": 9221,
      "Observ": 9222,
      "contrad": 9223,
      "definitions": 9224,
      "palm": 9225,
      "mask": 9226,
      "twelve": 9227,
      "ivities": 9228,
      "circular": 9229,
      "bugs": 9230,
      "alert": 9231,
      "Sher": 9232,
      "regulated": 9233,
      "Java": 9234,
      "mentation": 9235,
      "meth": 9236,
      "highlights": 9237,
      "hack": 9238,
      "somewhere": 9239,
      "Assembly": 9240,
      "antibiotic": 9241,
      "ugu": 9242,
      "Assist": 9243,
      "rush": 9244,
      "independently": 9245,
      "ggling": 9246,
      "orus": 9247,
      "progressive": 9248,
      "operational": 9249,
      "assessments": 9250,
      "tourism": 9251,
      "Love": 9252,
      "SR": 9253,
      "borders": 9254,
      "Missouri": 9255,
      "fingers": 9256,
      "physicians": 9257,
      "humidity": 9258,
      "films": 9259,
      "refugees": 9260,
      "receives": 9261,
      "cooked": 9262,
      "lith": 9263,
      "wavelength": 9264,
      "intelligent": 9265,
      "inspiration": 9266,
      "Tha": 9267,
      "illance": 9268,
      "Pub": 9269,
      "submitted": 9270,
      "legacy": 9271,
      "rus": 9272,
      "umped": 9273,
      "Poland": 9274,
      "jump": 9275,
      "iano": 9276,
      "Marx": 9277,
      "âĤ¬": 9278,
      "Mand": 9279,
      "aceutical": 9280,
      "Kenned": 9281,
      "electronics": 9282,
      "noun": 9283,
      "boats": 9284,
      "offices": 9285,
      "adaptation": 9286,
      "hazards": 9287,
      "Darwin": 9288,
      "appreciate": 9289,
      "bom": 9290,
      "governor": 9291,
      "digit": 9292,
[...]
